<pad>	0
<unk>	0
<s>	0
</s>	0
▁t	-0
he	-1
▁a	-2
in	-3
▁the	-4
▁w	-5
▁s	-6
▁o	-7
re	-8
nd	-9
▁h	-10
er	-11
ou	-12
is	-13
▁b	-14
at	-15
ed	-16
▁m	-17
▁f	-18
it	-19
▁c	-20
en	-21
▁and	-22
on	-23
▁of	-24
▁to	-25
ing	-26
or	-27
▁d	-28
es	-29
▁th	-30
an	-31
ll	-32
ar	-33
▁p	-34
as	-35
▁in	-36
▁he	-37
▁l	-38
▁n	-39
om	-40
▁ha	-41
le	-42
▁be	-43
▁g	-44
▁I	-45
ic	-46
ot	-47
▁wh	-48
▁e	-49
▁“	-50
ow	-51
ut	-52
im	-53
id	-54
▁y	-55
se	-56
ve	-57
st	-58
ly	-59
▁re	-60
▁that	-61
▁T	-62
▁on	-63
ld	-64
ent	-65
ce	-66
▁you	-67
▁was	-68
▁his	-69
gh	-70
ith	-71
ion	-72
ay	-73
▁with	-74
al	-75
et	-76
▁it	-77
▁u	-78
ir	-79
ver	-80
ad	-81
ro	-82
▁as	-83
▁is	-84
ur	-85
▁for	-86
▁not	-87
▁st	-88
▁A	-89
ght	-90
▁we	-91
ri	-92
▁sa	-93
▁had	-94
ch	-95
her	-96
▁an	-97
ct	-98
▁The	-99
ill	-100
▁at	-101
▁him	-102
ain	-103
▁M	-104
▁se	-105
▁sh	-106
oo	-107
am	-108
ich	-109
▁H	-110
▁her	-111
ter	-112
▁me	-113
ould	-114
all	-115
ke	-116
▁S	-117
ra	-118
if	-119
ess	-120
.”	-121
▁which	-122
red	-123
▁de	-124
il	-125
us	-126
▁so	-127
▁fr	-128
▁have	-129
▁all	-130
▁P	-131
ore	-132
▁su	-133
▁my	-134
▁C	-135
▁said	-136
pe	-137
▁B	-138
▁but	-139
▁by	-140
▁con	-141
ard	-142
▁this	-143
th	-144
▁from	-145
ck	-146
▁who	-147
▁or	-148
ight	-149
ome	-150
qu	-151
▁W	-152
ul	-153
▁k	-154
ge	-155
▁r	-156
▁do	-157
ble	-158
ant	-159
▁v	-160
▁whe	-161
▁she	-162
and	-163
▁ex	-164
res	-165
ust	-166
ous	-167
▁man	-168
pp	-169
,”	-170
▁are	-171
▁one	-172
ation	-173
▁they	-174
te	-175
ers	-176
ist	-177
est	-178
▁ne	-179
sel	-180
▁up	-181
▁were	-182
nt	-183
▁fe	-184
▁al	-185
ound	-186
▁ch	-187
os	-188
▁He	-189
▁li	-190
ol	-191
em	-192
very	-193
ast	-194
▁will	-195
our	-196
out	-197
▁no	-198
▁them	-199
ind	-200
▁G	-201
ong	-202
ate	-203
▁F	-204
ood	-205
art	-206
▁wor	-207
ap	-208
▁there	-209
ie	-210
ak	-211
▁N	-212
▁com	-213
▁kn	-214
un	-215
one	-216
▁D	-217
▁ar	-218
▁le	-219
um	-220
?”	-221
ort	-222
self	-223
la	-224
ost	-225
▁ab	-226
▁their	-227
ig	-228
ame	-229
ther	-230
▁go	-231
▁And	-232
ven	-233
ect	-234
▁your	-235
op	-236
▁j	-237
▁been	-238
▁when	-239
▁out	-240
▁would	-241
▁ag	-242
▁L	-243
ough	-244
ook	-245
ive	-246
▁int	-247
▁what	-248
ide	-249
au	-250
hed	-251
▁un	-252
▁O	-253
ity	-254
ine	-255
reat	-256
ose	-257
▁pro	-258
▁ro	-259
own	-260
▁sp	-261
▁Th	-262
▁E	-263
▁any	-264
urn	-265
▁tr	-266
ell	-267
▁am	-268
▁R	-269
ep	-270
ure	-271
▁more	-272
itt	-273
▁qu	-274
▁fa	-275
ount	-276
ved	-277
ice	-278
▁other	-279
od	-280
li	-281
ass	-282
hing	-283
▁if	-284
▁into	-285
▁can	-286
nder	-287
ber	-288
ance	-289
▁then	-290
able	-291
▁has	-292
ake	-293
▁pr	-294
▁tim	-295
ue	-296
▁some	-297
pt	-298
ci	-299
!”	-300
▁af	-301
▁im	-302
▁V	-303
ag	-304
ry	-305
▁tw	-306
ire	-307
▁us	-308
▁could	-309
▁dis	-310
ove	-311
▁ad	-312
▁know	-313
ars	-314
▁hand	-315
cc	-316
ite	-317
▁did	-318
▁now	-319
ree	-320
▁J	-321
ab	-322
▁like	-323
el	-324
other	-325
ought	-326
way	-327
▁en	-328
ress	-329
▁see	-330
ade	-331
ence	-332
fore	-333
▁only	-334
▁say	-335
ang	-336
▁again	-337
▁br	-338
ather	-339
▁It	-340
ies	-341
ving	-342
are	-343
▁very	-344
wn	-345
lo	-346
▁look	-347
▁than	-348
hat	-349
▁over	-350
ment	-351
▁time	-352
tain	-353
ated	-354
▁But	-355
ack	-356
ink	-357
▁about	-358
ud	-359
▁too	-360
▁should	-361
ish	-362
ier	-363
ile	-364
▁day	-365
ked	-366
▁po	-367
▁off	-368
▁rep	-369
▁‘	-370
ond	-371
--	-372
per	-373
ary	-374
ach	-375
▁cl	-376
▁our	-377
▁must	-378
ally	-379
▁per	-380
▁gr	-381
age	-382
ered	-383
▁rem	-384
ves	-385
ren	-386
▁himself	-387
▁may	-388
ac	-389
▁fir	-390
..	-391
ff	-392
▁every	-393
▁Y	-394
ings	-395
right	-396
ions	-397
me	-398
▁ey	-399
▁great	-400
ward	-401
▁two	-402
▁under	-403
ittle	-404
▁long	-405
▁sm	-406
▁thr	-407
ife	-408
ful	-409
▁pe	-410
▁before	-411
led	-412
ans	-413
▁des	-414
▁how	-415
▁good	-416
▁pre	-417
ced	-418
ness	-419
▁little	-420
▁down	-421
▁str	-422
oll	-423
ath	-424
ious	-425
▁old	-426
ull	-427
ty	-428
ince	-429
hen	-430
si	-431
▁bl	-432
ise	-433
▁count	-434
ject	-435
▁beg	-436
▁these	-437
▁after	-438
▁seem	-439
uch	-440
▁upon	-441
▁spe	-442
▁first	-443
old	-444
▁even	-445
▁_	-446
▁thought	-447
▁arm	-448
▁such	-449
▁comp	-450
▁men	-451
▁made	-452
ave	-453
ft	-454
rie	-455
ign	-456
▁pl	-457
▁bec	-458
▁ra	-459
▁where	-460
ried	-461
ng	-462
▁part	-463
▁shall	-464
▁own	-465
▁way	-466
▁pass	-467
ark	-468
ild	-469
▁went	-470
▁its	-471
ouse	-472
rew	-473
▁just	-474
▁fl	-475
▁In	-476
▁came	-477
▁ob	-478
ning	-479
ds	-480
▁work	-481
▁let	-482
▁head	-483
ened	-484
ted	-485
▁ent	-486
▁eyes	-487
ip	-488
▁res	-489
ick	-490
ne	-491
▁turn	-492
▁come	-493
▁gl	-494
▁ret	-495
▁without	-496
▁sc	-497
▁pla	-498
▁back	-499
▁much	-500
▁still	-501
▁imp	-502
▁cont	-503
▁think	-504
ces	-505
ons	-506
we	-507
iz	-508
▁acc	-509
ors	-510
▁bet	-511
omet	-512
▁(	-513
read	-514
▁those	-515
▁same	-516
▁op	-517
▁exp	-518
▁ind	-519
▁here	-520
▁well	-521
so	-522
ord	-523
▁through	-524
ha	-525
▁ap	-526
▁away	-527
▁might	-528
less	-529
ied	-530
▁She	-531
ase	-532
iv	-533
▁never	-534
▁house	-535
▁bo	-536
row	-537
ER	-538
ss	-539
▁dist	-540
▁Then	-541
ily	-542
▁1	-543
▁St	-544
▁father	-545
▁comm	-546
▁life	-547
ean	-548
▁cons	-549
▁pos	-550
ause	-551
▁car	-552
▁Pr	-553
▁young	-554
▁pres	-555
thing	-556
aking	-557
▁somet	-558
▁most	-559
▁happ	-560
les	-561
▁call	-562
cess	-563
riend	-564
orm	-565
▁lo	-566
fe	-567
▁This	-568
▁being	-569
▁nothing	-570
pect	-571
▁last	-572
▁Ch	-573
ared	-574
▁saw	-575
hy	-576
▁ye	-577
oment	-578
▁moment	-579
man	-580
ale	-581
here	-582
▁ser	-583
air	-584
hes	-585
▁friend	-586
▁make	-587
▁wr	-588
▁room	-589
ory	-590
▁wat	-591
▁app	-592
▁There	-593
▁door	-594
ener	-595
▁ord	-596
arm	-597
lied	-598
▁att	-599
▁night	-600
▁left	-601
▁form	-602
▁tell	-603
▁took	-604
▁seemed	-605
▁la	-606
▁another	-607
▁end	-608
atter	-609
ertain	-610
▁vo	-611
▁face	-612
.’	-613
▁bel	-614
▁ter	-615
ations	-616
cy	-617
▁em	-618
▁right	-619
iss	-620
▁ke	-621
▁mar	-622
▁rec	-623
▁though	-624
▁K	-625
▁light	-626
ret	-627
▁te	-628
▁Pro	-629
ished	-630
vent	-631
▁appe	-632
▁once	-633
▁found	-634
▁U	-635
▁get	-636
int	-637
▁return	-638
▁take	-639
ru	-640
▁read	-641
▁You	-642
uten	-643
ult	-644
▁heard	-645
av	-646
ever	-647
▁co	-648
ction	-649
ner	-650
▁They	-651
ling	-652
ari	-653
amp	-654
ently	-655
igh	-656
ople	-657
▁child	-658
ollow	-659
oth	-660
HA	-661
▁yet	-662
berg	-663
ict	-664
▁At	-665
▁while	-666
ither	-667
▁When	-668
ition	-669
cl	-670
fort	-671
wards	-672
ix	-673
utenberg	-674
▁replied	-675
▁asked	-676
▁wom	-677
TER	-678
rib	-679
▁three	-680
▁looked	-681
ub	-682
▁Mr	-683
lt	-684
ierre	-685
den	-686
▁pers	-687
▁sec	-688
the	-689
ont	-690
▁inst	-691
og	-692
alk	-693
▁ple	-694
▁people	-695
▁sw	-696
ank	-697
▁whole	-698
▁heart	-699
ian	-700
▁hands	-701
▁ear	-702
▁Pierre	-703
▁add	-704
▁began	-705
▁place	-706
▁wa	-707
▁want	-708
▁fell	-709
▁set	-710
▁mind	-711
▁whom	-712
ates	-713
▁CHA	-714
The	-715
▁As	-716
▁inf	-717
▁something	-718
▁round	-719
▁sl	-720
ew	-721
▁Al	-722
sw	-723
PTER	-724
▁CHAPTER	-725
▁cor	-726
▁gra	-727
▁supp	-728
▁[	-729
lf	-730
ange	-731
ways	-732
▁side	-733
▁follow	-734
▁feel	-735
▁love	-736
▁Gutenberg	-737
ower	-738
▁wind	-739
ens	-740
ched	-741
▁seen	-742
aught	-743
▁put	-744
ited	-745
▁many	-746
cept	-747
▁"	-748
▁sil	-749
▁reg	-750
▁answ	-751
▁rest	-752
▁gi	-753
▁gener	-754
You	-755
▁hor	-756
▁cr	-757
▁mor	-758
▁ac	-759
▁dra	-760
not	-761
▁sur	-762
▁ass	-763
▁underst	-764
▁give	-765
ows	-766
▁What	-767
▁also	-768
lic	-769
▁Val	-770
▁gu	-771
▁war	-772
▁Project	-773
ained	-774
und	-775
▁Fr	-776
uck	-777
▁sou	-778
ged	-779
▁cour	-780
oy	-781
▁new	-782
▁sub	-783
▁each	-784
▁always	-785
rist	-786
sible	-787
ired	-788
▁ins	-789
What	-790
▁felt	-791
▁conf	-792
ho	-793
▁against	-794
▁So	-795
oke	-796
▁sat	-797
most	-798
ail	-799
cei	-800
▁We	-801
▁cap	-802
▁soon	-803
▁inte	-804
▁ref	-805
▁things	-806
▁nat	-807
ined	-808
iness	-809
act	-810
get	-811
▁If	-812
▁ever	-813
ating	-814
ised	-815
ls	-816
fect	-817
▁dif	-818
aken	-819
▁sle	-820
▁ev	-821
ting	-822
▁voice	-823
▁having	-824
ief	-825
ody	-826
▁Prince	-827
▁ho	-828
▁find	-829
▁On	-830
ace	-831
ical	-832
pped	-833
ute	-834
▁near	-835
ense	-836
vers	-837
▁son	-838
▁words	-839
ield	-840
▁name	-841
Yes	-842
▁dear	-843
oub	-844
▁beh	-845
anc	-846
▁told	-847
ial	-848
▁tre	-849
▁world	-850
▁mother	-851
▁His	-852
▁going	-853
▁full	-854
▁thing	-855
▁certain	-856
ying	-857
ple	-858
▁don	-859
ene	-860
▁pur	-861
▁turned	-862
▁because	-863
▁far	-864
ual	-865
▁done	-866
▁To	-867
▁occ	-868
rench	-869
ween	-870
▁inter	-871
aps	-872
▁fo	-873
ern	-874
▁quite	-875
▁cle	-876
up	-877
ides	-878
▁death	-879
tle	-880
ister	-881
▁God	-882
▁both	-883
▁mo	-884
▁mon	-885
▁pleas	-886
▁tra	-887
▁fall	-888
osed	-889
▁hour	-890
▁vis	-891
ph	-892
▁That	-893
▁hum	-894
▁cried	-895
eth	-896
mb	-897
▁myself	-898
▁ship	-899
▁between	-900
▁No	-901
And	-902
ery	-903
ung	-904
▁For	-905
ross	-906
▁adv	-907
uth	-908
aring	-909
▁called	-910
▁does	-911
▁ide	-912
▁present	-913
▁knew	-914
▁morning	-915
aint	-916
oud	-917
selves	-918
▁nor	-919
▁inc	-920
aut	-921
oun	-922
▁word	-923
▁che	-924
its	-925
▁bed	-926
arge	-927
rest	-928
▁disc	-929
▁French	-930
▁cannot	-931
ps	-932
▁open	-933
▁ele	-934
xt	-935
,’	-936
uc	-937
ressed	-938
aven	-939
▁contin	-940
▁kind	-941
ug	-942
▁order	-943
ued	-944
arius	-945
ille	-946
▁rel	-947
lack	-948
▁fore	-949
▁Mad	-950
ole	-951
▁Mor	-952
ures	-953
▁point	-954
▁hel	-955
▁dead	-956
ason	-957
▁dr	-958
▁years	-959
ás	-960
▁sort	-961
nded	-962
▁gave	-963
dden	-964
▁act	-965
ured	-966
▁exc	-967
ering	-968
▁ste	-969
▁stand	-970
ular	-971
▁Marius	-972
▁sk	-973
▁almost	-974
az	-975
▁woman	-976
▁quest	-977
▁towards	-978
▁understand	-979
ins	-980
ks	-981
▁half	-982
▁bar	-983
▁bre	-984
▁Mon	-985
It	-986
▁es	-987
▁few	-988
▁care	-989
owed	-990
▁hard	-991
▁fam	-992
▁An	-993
▁mean	-994
▁matter	-995
ention	-996
▁among	-997
▁sent	-998
▁home	-999
▁sudden	-1000
▁Be	-1001
▁gir	-1002
ready	-1003
▁passed	-1004
▁bro	-1005
▁got	-1006
als	-1007
▁air	-1008
▁imm	-1009
▁poor	-1010
ásha	-1011
▁dark	-1012
▁anything	-1013
TM	-1014
▁stood	-1015
ceived	-1016
▁Nat	-1017
▁soul	-1018
▁hon	-1019
▁four	-1020
II	-1021
▁alone	-1022
▁cur	-1023
▁thy	-1024
▁behind	-1025
HE	-1026
Well	-1027
▁sun	-1028
▁true	-1029
▁already	-1030
▁GutenbergTM	-1031
▁person	-1032
▁herself	-1033
▁speak	-1034
▁offic	-1035
,—	-1036
▁better	-1037
ats	-1038
▁sir	-1039
...	-1040
ream	-1041
▁lay	-1042
▁aw	-1043
▁small	-1044
▁suff	-1045
tered	-1046
▁art	-1047
ached	-1048
▁dire	-1049
▁arms	-1050
Oh	-1051
:—	-1052
▁sound	-1053
▁*	-1054
▁since	-1055
▁taken	-1056
na	-1057
ctor	-1058
ets	-1059
▁thus	-1060
▁dec	-1061
▁el	-1062
▁eff	-1063
▁Jean	-1064
▁others	-1065
▁bat	-1066
▁Natásha	-1067
▁sim	-1068
ron	-1069
▁law	-1070
▁best	-1071
▁days	-1072
▁serv	-1073
▁hear	-1074
ible	-1075
▁letter	-1076
▁belie	-1077
▁prin	-1078
ey	-1079
used	-1080
▁All	-1081
▁black	-1082
▁dep	-1083
óv	-1084
▁wall	-1085
sh	-1086
▁sing	-1087
▁sea	-1088
men	-1089
irt	-1090
▁sold	-1091
haps	-1092
ten	-1093
▁white	-1094
▁help	-1095
▁inv	-1096
▁lad	-1097
ately	-1098
▁Monte	-1099
▁Andrew	-1100
ents	-1101
▁talk	-1102
ants	-1103
▁longer	-1104
▁fur	-1105
aster	-1106
risto	-1107
▁whose	-1108
▁sign	-1109
▁fire	-1110
▁Cristo	-1111
lock	-1112
▁mis	-1113
▁sleep	-1114
▁cop	-1115
▁red	-1116
aid	-1117
00	-1118
▁min	-1119
▁ph	-1120
ains	-1121
ments	-1122
▁heaven	-1123
▁water	-1124
gth	-1125
ully	-1126
jean	-1127
▁fear	-1128
▁everything	-1129
▁power	-1130
▁Valjean	-1131
ov	-1132
ably	-1133
▁ask	-1134
▁keep	-1135
▁along	-1136
tte	-1137
▁Ar	-1138
ms	-1139
ized	-1140
▁beaut	-1141
▁hold	-1142
▁Ville	-1143
rel	-1144
iting	-1145
uring	-1146
illed	-1147
▁wife	-1148
▁ground	-1149
ès	-1150
▁Rost	-1151
▁Villefort	-1152
▁command	-1153
▁use	-1154
▁doub	-1155
▁X	-1156
▁thir	-1157
No	-1158
▁Em	-1159
▁inde	-1160
But	-1161
▁brought	-1162
▁second	-1163
pr	-1164
▁Now	-1165
▁till	-1166
He	-1167
aughter	-1168
aris	-1169
▁gent	-1170
▁less	-1171
pl	-1172
▁army	-1173
that	-1174
akes	-1175
ety	-1176
▁ir	-1177
▁general	-1178
▁however	-1179
▁det	-1180
▁reason	-1181
▁Wh	-1182
▁express	-1183
▁wish	-1184
edi	-1185
anger	-1186
▁high	-1187
▁country	-1188
▁With	-1189
▁whale	-1190
▁cond	-1191
▁whether	-1192
▁saying	-1193
▁pol	-1194
ceed	-1195
fully	-1196
une	-1197
ken	-1198
▁run	-1199
▁step	-1200
by	-1201
orrow	-1202
▁list	-1203
ater	-1204
▁king	-1205
unt	-1206
▁real	-1207
▁fact	-1208
ution	-1209
ash	-1210
▁prom	-1211
laim	-1212
▁hus	-1213
▁themselves	-1214
▁opp	-1215
▁given	-1216
▁need	-1217
▁looking	-1218
▁aff	-1219
riage	-1220
osette	-1221
ract	-1222
rent	-1223
▁chief	-1224
irc	-1225
land	-1226
▁abs	-1227
▁del	-1228
▁ill	-1229
▁arri	-1230
▁sure	-1231
day	-1232
▁ang	-1233
ock	-1234
iled	-1235
▁dro	-1236
▁adm	-1237
▁ext	-1238
▁obs	-1239
gether	-1240
▁leave	-1241
▁evening	-1242
▁together	-1243
▁returned	-1244
----	-1245
▁human	-1246
▁Cosette	-1247
▁One	-1248
▁unt	-1249
▁gentle	-1250
oney	-1251
▁enough	-1252
undred	-1253
▁rather	-1254
tem	-1255
▁bes	-1256
▁How	-1257
▁fin	-1258
▁enem	-1259
▁appro	-1260
▁large	-1261
▁Rostóv	-1262
▁question	-1263
▁suddenly	-1264
cious	-1265
▁answered	-1266
rible	-1267
ison	-1268
che	-1269
imes	-1270
▁draw	-1271
▁sight	-1272
▁My	-1273
▁dest	-1274
ided	-1275
ught	-1276
ude	-1277
▁bus	-1278
▁feet	-1279
▁table	-1280
▁num	-1281
iew	-1282
▁gone	-1283
▁hundred	-1284
lars	-1285
▁par	-1286
▁course	-1287
▁deep	-1288
ts	-1289
▁girl	-1290
ousand	-1291
ching	-1292
▁thou	-1293
▁cal	-1294
ident	-1295
▁mid	-1296
▁appear	-1297
ny	-1298
▁why	-1299
ities	-1300
▁ri	-1301
owing	-1302
de	-1303
anglars	-1304
▁entered	-1305
du	-1306
▁next	-1307
▁circ	-1308
▁thousand	-1309
ances	-1310
▁blood	-1311
▁sister	-1312
▁gold	-1313
▁Danglars	-1314
roy	-1315
▁char	-1316
▁close	-1317
ility	-1318
▁bra	-1319
▁Paris	-1320
▁live	-1321
▁body	-1322
▁land	-1323
arn	-1324
▁earth	-1325
▁lost	-1326
▁1.	-1327
▁remem	-1328
▁around	-1329
én	-1330
ussi	-1331
▁lau	-1332
▁hope	-1333
▁brother	-1334
fic	-1335
▁div	-1336
▁pri	-1337
▁case	-1338
▁diffe	-1339
▁spoke	-1340
▁times	-1341
ement	-1342
cul	-1343
ool	-1344
▁either	-1345
▁Count	-1346
▁really	-1347
▁free	-1348
▁stre	-1349
bert	-1350
▁front	-1351
▁smile	-1352
▁.	-1353
▁ut	-1354
▁strange	-1355
▁foot	-1356
▁move	-1357
▁opened	-1358
ane	-1359
oc	-1360
▁within	-1361
ax	-1362
▁strong	-1363
ime	-1364
▁expect	-1365
▁dev	-1366
▁road	-1367
▁horse	-1368
▁THE	-1369
▁met	-1370
▁swe	-1371
▁2	-1372
itted	-1373
▁idea	-1374
▁perhaps	-1375
EN	-1376
▁wo	-1377
▁interest	-1378
be	-1379
ider	-1380
▁eye	-1381
▁requ	-1382
▁works	-1383
▁daughter	-1384
▁doubt	-1385
▁bur	-1386
▁joy	-1387
▁prov	-1388
nding	-1389
▁ed	-1390
▁ran	-1391
▁believe	-1392
▁leg	-1393
▁continued	-1394
▁above	-1395
▁bene	-1396
▁spr	-1397
overed	-1398
▁least	-1399
That	-1400
▁hur	-1401
▁expl	-1402
▁fight	-1403
▁money	-1404
▁necess	-1405
ased	-1406
▁begin	-1407
▁possible	-1408
▁short	-1409
iers	-1410
▁dri	-1411
_,	-1412
▁yourself	-1413
itting	-1414
▁six	-1415
▁become	-1416
▁mist	-1417
▁state	-1418
▁battle	-1419
ape	-1420
▁Nap	-1421
ising	-1422
ually	-1423
▁held	-1424
▁happy	-1425
erv	-1426
▁eas	-1427
▁clear	-1428
enty	-1429
ounded	-1430
▁remained	-1431
▁indeed	-1432
ee	-1433
arch	-1434
▁tou	-1435
▁fort	-1436
▁manner	-1437
peror	-1438
▁stra	-1439
▁Russi	-1440
ages	-1441
▁enemy	-1442
▁sn	-1443
▁shout	-1444
▁Madame	-1445
ific	-1446
ians	-1447
ror	-1448
peri	-1449
▁added	-1450
▁itself	-1451
ati	-1452
ert	-1453
ards	-1454
▁gre	-1455
to	-1456
▁became	-1457
Ah	-1458
ia	-1459
▁breat	-1460
▁start	-1461
let	-1462
fter	-1463
▁wood	-1464
ric	-1465
▁“‘	-1466
▁nature	-1467
sess	-1468
▁therefore	-1469
▁five	-1470
you	-1471
airs	-1472
▁hist	-1473
iter	-1474
ushed	-1475
▁coming	-1476
ois	-1477
▁ca	-1478
▁else	-1479
sses	-1480
oleon	-1481
▁Albert	-1482
▁Ah	-1483
▁play	-1484
▁tri	-1485
Th	-1486
mm	-1487
ines	-1488
▁col	-1489
▁ve	-1490
▁view	-1491
▁window	-1492
▁children	-1493
▁ru	-1494
▁Eli	-1495
otion	-1496
▁means	-1497
▁until	-1498
band	-1499
▁esc	-1500
▁mad	-1501
▁prof	-1502
▁says	-1503
▁pap	-1504
▁Dant	-1505
▁meet	-1506
▁quick	-1507
▁compan	-1508
▁received	-1509
▁Morrel	-1510
▁field	-1511
▁Napoleon	-1512
▁prop	-1513
▁trans	-1514
▁possess	-1515
ec	-1516
aving	-1517
▁equ	-1518
▁Mos	-1519
lysses	-1520
br	-1521
▁Eliz	-1522
▁rose	-1523
of	-1524
▁exist	-1525
▁friends	-1526
▁Gree	-1527
ils	-1528
use	-1529
▁hair	-1530
▁dem	-1531
iful	-1532
▁able	-1533
▁god	-1534
▁truth	-1535
▁Rue	-1536
anced	-1537
▁family	-1538
tern	-1539
cer	-1540
▁cou	-1541
▁often	-1542
▁ce	-1543
abeth	-1544
▁Mary	-1545
▁cold	-1546
▁elect	-1547
oss	-1548
▁subject	-1549
▁conv	-1550
▁cut	-1551
▁lead	-1552
▁husband	-1553
▁Elizabeth	-1554
▁grand	-1555
▁creat	-1556
▁appeared	-1557
▁mer	-1558
▁spir	-1559
▁Ulysses	-1560
alked	-1561
iling	-1562
cell	-1563
king	-1564
▁Mosc	-1565
▁copy	-1566
▁repe	-1567
."	-1568
sk	-1569
arp	-1570
▁Dantès	-1571
▁bad	-1572
▁bring	-1573
▁shad	-1574
▁Emperor	-1575
▁Not	-1576
ev	-1577
▁Moscow	-1578
rig	-1579
▁fellow	-1580
▁Gre	-1581
▁instant	-1582
?’	-1583
ster	-1584
der	-1585
que	-1586
▁pain	-1587
for	-1588
outh	-1589
▁forth	-1590
▁direct	-1591
vern	-1592
▁bir	-1593
▁answer	-1594
▁partic	-1595
▁sto	-1596
▁crow	-1597
▁walk	-1598
▁women	-1599
▁terrible	-1600
ledge	-1601
▁gard	-1602
▁pay	-1603
▁yes	-1604
where	-1605
▁taking	-1606
alth	-1607
crib	-1608
▁ten	-1609
▁stud	-1610
▁respect	-1611
head	-1612
▁imag	-1613
▁making	-1614
▁feeling	-1615
▁low	-1616
▁sad	-1617
▁master	-1618
▁gaz	-1619
▁cross	-1620
▁unc	-1621
▁known	-1622
▁ready	-1623
gg	-1624
▁18	-1625
▁prep	-1626
▁stren	-1627
ury	-1628
▁desp	-1629
▁followed	-1630
orn	-1631
anged	-1632
▁quar	-1633
▁tem	-1634
▁consider	-1635
form	-1636
▁force	-1637
AR	-1638
omp	-1639
room	-1640
▁plain	-1641
▁bu	-1642
▁inqu	-1643
but	-1644
▁fix	-1645
My	-1646
▁town	-1647
▁perfect	-1648
▁comple	-1649
iar	-1650
▁mil	-1651
▁past	-1652
lem	-1653
▁sever	-1654
▁remain	-1655
ogn	-1656
▁flo	-1657
▁fair	-1658
erm	-1659
iet	-1660
ead	-1661
ening	-1662
▁surpr	-1663
▁jo	-1664
rupt	-1665
▁seems	-1666
▁during	-1667
ney	-1668
▁drew	-1669
ush	-1670
▁Do	-1671
aw	-1672
▁mur	-1673
▁vi	-1674
▁Yes	-1675
rence	-1676
ublic	-1677
▁disp	-1678
resh	-1679
▁excell	-1680
vel	-1681
ronic	-1682
▁incl	-1683
entine	-1684
▁visit	-1685
orses	-1686
▁const	-1687
▁eng	-1688
▁object	-1689
▁stay	-1690
▁prison	-1691
IN	-1692
cri	-1693
body	-1694
▁pray	-1695
▁cause	-1696
▁sometimes	-1697
▁dream	-1698
▁squ	-1699
itude	-1700
▁reached	-1701
olas	-1702
vert	-1703
▁used	-1704
bs	-1705
▁Un	-1706
▁sit	-1707
ining	-1708
▁Pl	-1709
▁evid	-1710
▁mount	-1711
▁fle	-1712
▁kept	-1713
▁different	-1714
▁gods	-1715
▁placed	-1716
bed	-1717
ott	-1718
▁cat	-1719
▁diffic	-1720
▁expression	-1721
isf	-1722
over	-1723
iously	-1724
▁Eng	-1725
icholas	-1726
▁OF	-1727
▁electronic	-1728
▁horses	-1729
▁beautiful	-1730
▁cry	-1731
▁emb	-1732
▁cent	-1733
▁post	-1734
ask	-1735
▁di	-1736
ices	-1737
▁tor	-1738
▁phil	-1739
dle	-1740
ues	-1741
ump	-1742
▁fine	-1743
illes	-1744
▁hero	-1745
ollect	-1746
▁impos	-1747
▁raised	-1748
),	-1749
▁Let	-1750
▁acqu	-1751
▁mere	-1752
ops	-1753
▁book	-1754
ze	-1755
▁terms	-1756
ib	-1757
▁Jove	-1758
Why	-1759
iment	-1760
▁agre	-1761
▁soci	-1762
laimed	-1763
▁These	-1764
ym	-1765
▁age	-1766
▁mod	-1767
▁une	-1768
▁Valentine	-1769
▁From	-1770
osop	-1771
ceive	-1772
ouble	-1773
ative	-1774
▁month	-1775
▁Nicholas	-1776
ancs	-1777
▁twenty	-1778
lect	-1779
ize	-1780
▁gall	-1781
▁stri	-1782
▁attack	-1783
▁captain	-1784
_.	-1785
How	-1786
▁wonder	-1787
▁Is	-1788
▁wis	-1789
▁After	-1790
lled	-1791
▁State	-1792
▁francs	-1793
▁pleasure	-1794
ES	-1795
nds	-1796
utes	-1797
▁die	-1798
inted	-1799
▁immedi	-1800
▁except	-1801
▁recogn	-1802
▁convers	-1803
▁cast	-1804
▁forg	-1805
▁line	-1806
▁business	-1807
ieur	-1808
▁prob	-1809
▁learn	-1810
▁strength	-1811
▁silence	-1812
ires	-1813
▁laugh	-1814
▁several	-1815
appe	-1816
like	-1817
▁cra	-1818
▁Prin	-1819
wh	-1820
ones	-1821
ural	-1822
▁bit	-1823
▁mus	-1824
▁philosop	-1825
gr	-1826
▁tro	-1827
▁fright	-1828
ots	-1829
▁glo	-1830
▁contr	-1831
▁3	-1832
▁heav	-1833
▁De	-1834
▁fif	-1835
▁number	-1836
ON	-1837
pid	-1838
▁Sh	-1839
▁tried	-1840
▁account	-1841
▁following	-1842
▁thee	-1843
▁mouth	-1844
onsieur	-1845
▁carriage	-1846
▁eat	-1847
énard	-1848
anz	-1849
inct	-1850
▁boy	-1851
▁justice	-1852
!’	-1853
▁third	-1854
ote	-1855
▁youth	-1856
side	-1857
▁obser	-1858
▁doctor	-1859
▁officer	-1860
▁soldiers	-1861
▁Princess	-1862
▁Pe	-1863
▁crowd	-1864
▁happened	-1865
▁Thénard	-1866
▁pale	-1867
ches	-1868
▁affect	-1869
▁secret	-1870
▁laid	-1871
▁accord	-1872
▁hardly	-1873
▁charact	-1874
▁Her	-1875
▁carried	-1876
ift	-1877
▁doing	-1878
▁hast	-1879
▁drink	-1880
▁event	-1881
▁exclaimed	-1882
▁peace	-1883
._	-1884
▁opin	-1885
lish	-1886
▁struck	-1887
bit	-1888
▁led	-1889
iding	-1890
▁hung	-1891
▁import	-1892
▁comes	-1893
▁seeing	-1894
▁standing	-1895
elle	-1896
▁fast	-1897
ination	-1898
erous	-1899
▁Franz	-1900
aged	-1901
▁happiness	-1902
▁effect	-1903
▁further	-1904
▁turning	-1905
IS	-1906
umb	-1907
▁common	-1908
We	-1909
▁iron	-1910
▁garden	-1911
▁sitting	-1912
oon	-1913
▁proper	-1914
▁position	-1915
If	-1916
amed	-1917
▁danger	-1918
▁pie	-1919
ingly	-1920
▁break	-1921
▁dog	-1922
owers	-1923
▁certainly	-1924
▁city	-1925
▁knowledge	-1926
▁ought	-1927
▁remember	-1928
▁prince	-1929
▁particular	-1930
clock	-1931
▁Well	-1932
▁vict	-1933
▁stopped	-1934
ger	-1935
▁inn	-1936
▁forward	-1937
fer	-1938
ission	-1939
▁impossible	-1940
mes	-1941
what	-1942
▁beneath	-1943
oly	-1944
▁By	-1945
▁carry	-1946
▁dread	-1947
▁dress	-1948
ina	-1949
▁fre	-1950
▁lim	-1951
▁calm	-1952
▁distrib	-1953
▁Oh	-1954
▁burn	-1955
▁attention	-1956
aj	-1957
▁’	-1958
though	-1959
▁across	-1960
▁speaking	-1961
▁evidently	-1962
uff	-1963
▁sus	-1964
ters	-1965
▁Mrs	-1966
▁main	-1967
▁living	-1968
iced	-1969
▁fav	-1970
▁prot	-1971
uous	-1972
▁Ben	-1973
▁purs	-1974
▁Thus	-1975
▁bright	-1976
▁neither	-1977
▁Lu	-1978
ency	-1979
▁fat	-1980
▁fig	-1981
▁regard	-1982
ales	-1983
▁beside	-1984
▁street	-1985
▁mag	-1986
icked	-1987
▁host	-1988
▁year	-1989
▁guard	-1990
▁ast	-1991
▁rev	-1992
tempt	-1993
▁Saint	-1994
ames	-1995
▁ball	-1996
▁tears	-1997
▁satisf	-1998
▁hat	-1999
▁news	-2000
▁worth	-2001
itation	-2002
▁anyone	-2003
bour	-2004
▁Kut	-2005
▁Found	-2006
▁evil	-2007
▁produ	-2008
▁5	-2009
▁av	-2010
There	-2011
arent	-2012
▁wanted	-2013
zov	-2014
itions	-2015
▁delight	-2016
Do	-2017
▁Foundation	-2018
asion	-2019
▁steps	-2020
uted	-2021
▁len	-2022
▁corner	-2023
sib	-2024
▁Thénardier	-2025
▁sail	-2026
▁conc	-2027
▁desce	-2028
▁suppose	-2029
▁jud	-2030
▁auth	-2031
▁viol	-2032
▁dut	-2033
▁perm	-2034
▁Why	-2035
▁def	-2036
▁bound	-2037
▁knows	-2038
ality	-2039
pping	-2040
▁lips	-2041
▁quiet	-2042
▁remark	-2043
▁bear	-2044
...”	-2045
▁arr	-2046
▁mat	-2047
▁anim	-2048
——	-2049
olute	-2050
▁Miss	-2051
▁din	-2052
▁hours	-2053
▁drawing	-2054
▁emp	-2055
▁port	-2056
▁former	-2057
▁rapid	-2058
ivid	-2059
▁Ach	-2060
▁fan	-2061
ges	-2062
ras	-2063
▁arrived	-2064
AN	-2065
▁vain	-2066
▁moved	-2067
▁watch	-2068
bo	-2069
ging	-2070
rage	-2071
▁rich	-2072
▁summ	-2073
▁wild	-2074
▁glass	-2075
▁sweet	-2076
▁effort	-2077
▁silent	-2078
▁inform	-2079
▁mention	-2080
▁character	-2081
usion	-2082
▁boat	-2083
▁story	-2084
▁enc	-2085
▁Ahab	-2086
▁prev	-2087
▁slow	-2088
▁occur	-2089
▁wished	-2090
ius	-2091
▁est	-2092
▁eight	-2093
▁later	-2094
▁necessary	-2095
▁Nor	-2096
▁wine	-2097
erc	-2098
▁lie	-2099
▁coun	-2100
▁entire	-2101
▁princi	-2102
▁4	-2103
▁agree	-2104
▁length	-2105
kn	-2106
▁grie	-2107
▁pret	-2108
▁charm	-2109
▁closed	-2110
▁princess	-2111
ler	-2112
▁scar	-2113
itten	-2114
▁conce	-2115
ony	-2116
uct	-2117
raid	-2118
▁band	-2119
▁glad	-2120
▁purp	-2121
▁succ	-2122
▁change	-2123
umed	-2124
▁occup	-2125
just	-2126
▁pock	-2127
▁Sc	-2128
▁Te	-2129
▁mem	-2130
▁harm	-2131
▁lady	-2132
▁fixed	-2133
▁govern	-2134
semb	-2135
▁whis	-2136
▁trees	-2137
,"	-2138
▁Or	-2139
▁self	-2140
val	-2141
▁Here	-2142
▁show	-2143
▁single	-2144
▁thoughts	-2145
▁beginning	-2146
▁immediately	-2147
ley	-2148
▁minutes	-2149
emois	-2150
vere	-2151
▁gun	-2152
▁late	-2153
emoiselle	-2154
▁makes	-2155
:--	-2156
▁sol	-2157
▁Hol	-2158
▁experi	-2159
▁tone	-2160
▁Russian	-2161
▁countess	-2162
cing	-2163
▁paper	-2164
▁opinion	-2165
tend	-2166
▁killed	-2167
ob	-2168
▁Cap	-2169
▁spo	-2170
▁thick	-2171
▁afraid	-2172
yr	-2173
hov	-2174
▁reply	-2175
▁disappe	-2176
▁fut	-2177
▁loud	-2178
▁paid	-2179
▁virt	-2180
▁honor	-2181
▁pen	-2182
OR	-2183
khov	-2184
▁blue	-2185
inary	-2186
▁fate	-2187
▁straight	-2188
▁soft	-2189
▁conversation	-2190
cks	-2191
ours	-2192
apter	-2193
▁fing	-2194
tained	-2195
▁circum	-2196
▁proceed	-2197
raph	-2198
yond	-2199
▁complete	-2200
net	-2201
▁val	-2202
▁green	-2203
retched	-2204
▁fly	-2205
ilt	-2206
light	-2207
▁sense	-2208
asp	-2209
▁suit	-2210
▁Of	-2211
Then	-2212
▁Pet	-2213
▁try	-2214
▁Some	-2215
▁vill	-2216
▁neigh	-2217
▁demand	-2218
▁spirit	-2219
▁presence	-2220
▁thinking	-2221
anks	-2222
▁kill	-2223
▁tremb	-2224
▁author	-2225
under	-2226
▁below	-2227
▁gloom	-2228
▁slight	-2229
▁sorrow	-2230
▁talking	-2231
▁distance	-2232
▁understood	-2233
ustom	-2234
▁future	-2235
▁Who	-2236
▁accept	-2237
lies	-2238
▁repeated	-2239
▁anx	-2240
▁Plat	-2241
▁court	-2242
▁hig	-2243
avert	-2244
▁mine	-2245
▁Holmes	-2246
▁dinner	-2247
nya	-2248
ration	-2249
▁desire	-2250
▁darkness	-2251
IT	-2252
▁lived	-2253
▁loved	-2254
▁public	-2255
oose	-2256
▁mass	-2257
▁reach	-2258
▁breast	-2259
▁caught	-2260
▁troops	-2261
▁address	-2262
▁orders	-2263
ónya	-2264
▁lab	-2265
▁maid	-2266
▁warm	-2267
▁forget	-2268
▁English	-2269
▁occasion	-2270
▁Den	-2271
▁walked	-2272
ned	-2273
▁bow	-2274
▁fresh	-2275
▁threw	-2276
▁Javert	-2277
▁broken	-2278
▁history	-2279
oned	-2280
▁top	-2281
▁shore	-2282
In	-2283
sov	-2284
ored	-2285
cience	-2286
.]	-2287
ooh	-2288
▁box	-2289
▁intell	-2290
ics	-2291
ubb	-2292
▁sal	-2293
▁While	-2294
▁grave	-2295
olution	-2296
ón	-2297
▁won	-2298
antly	-2299
▁floor	-2300
▁breath	-2301
▁soldier	-2302
▁pat	-2303
ND	-2304
cient	-2305
▁wait	-2306
lig	-2307
eness	-2308
itary	-2309
▁laws	-2310
▁Every	-2311
▁meant	-2312
▁Hector	-2313
▁nearly	-2314
▁destroy	-2315
bb	-2316
▁Troy	-2317
▁Bor	-2318
▁Cad	-2319
▁Dar	-2320
ented	-2321
▁weak	-2322
▁beyond	-2323
▁seized	-2324
aled	-2325
▁big	-2326
▁cre	-2327
▁none	-2328
ísov	-2329
▁sho	-2330
▁comb	-2331
▁belong	-2332
▁Ne	-2333
....	-2334
▁kiss	-2335
loy	-2336
par	-2337
▁deal	-2338
▁Am	-2339
ancing	-2340
▁action	-2341
▁report	-2342
▁waiting	-2343
ume	-2344
ries	-2345
▁ago	-2346
▁Darcy	-2347
ically	-2348
morrow	-2349
▁chance	-2350
▁fortune	-2351
▁purpose	-2352
▁service	-2353
atever	-2354
▁States	-2355
▁escape	-2356
▁quickly	-2357
▁success	-2358
▁Le	-2359
▁Sp	-2360
▁Sónya	-2361
--------	-2362
▁instead	-2363
▁natural	-2364
ager	-2365
▁peas	-2366
▁rul	-2367
▁filled	-2368
▁ann	-2369
ek	-2370
peci	-2371
▁spot	-2372
▁trad	-2373
▁heavy	-2374
▁oppos	-2375
ism	-2376
ected	-2377
▁camp	-2378
▁although	-2379
med	-2380
▁enter	-2381
erousse	-2382
▁sla	-2383
ortal	-2384
▁wrong	-2385
▁Christ	-2386
night	-2387
▁Dor	-2388
▁wit	-2389
▁grew	-2390
▁please	-2391
▁Denísov	-2392
▁shouted	-2393
leep	-2394
▁society	-2395
ists	-2396
▁den	-2397
▁nar	-2398
▁sky	-2399
▁written	-2400
els	-2401
ified	-2402
▁hill	-2403
▁depart	-2404
▁Achilles	-2405
▁Caderousse	-2406
▁appearance	-2407
ises	-2408
ives	-2409
amber	-2410
▁stone	-2411
▁wound	-2412
vna	-2413
▁En	-2414
anch	-2415
▁hop	-2416
ively	-2417
known	-2418
▁pretty	-2419
uel	-2420
▁vol	-2421
▁individ	-2422
▁approach	-2423
▁stranger	-2424
arer	-2425
achus	-2426
lling	-2427
▁easy	-2428
▁utter	-2429
idence	-2430
▁motion	-2431
▁Mademoiselle	-2432
OO	-2433
▁Se	-2434
▁coat	-2435
▁exam	-2436
▁mut	-2437
▁Alice	-2438
▁circumst	-2439
hood	-2440
▁forest	-2441
ET	-2442
▁forgot	-2443
isted	-2444
▁jour	-2445
▁latter	-2446
▁agreement	-2447
▁Ed	-2448
iant	-2449
▁usual	-2450
▁glance	-2451
▁describ	-2452
▁copyright	-2453
▁middle	-2454
▁wounded	-2455
▁movement	-2456
▁individual	-2457
▁mill	-2458
▁alarm	-2459
ady	-2460
angu	-2461
▁firm	-2462
▁study	-2463
urg	-2464
lace	-2465
▁plan	-2466
▁Van	-2467
▁pal	-2468
▁duty	-2469
▁marry	-2470
▁merely	-2471
▁toward	-2472
▁gentleman	-2473
cked	-2474
omer	-2475
▁ign	-2476
▁Where	-2477
▁prevent	-2478
asure	-2479
▁clot	-2480
▁pocket	-2481
eds	-2482
ees	-2483
▁fal	-2484
▁employ	-2485
▁Chapter	-2486
ah	-2487
pit	-2488
ouses	-2489
culiar	-2490
gor	-2491
▁Tro	-2492
▁mark	-2493
ection	-2494
▁allow	-2495
▁spread	-2496
▁officers	-2497
co	-2498
cerf	-2499
▁neck	-2500
▁train	-2501
wo	-2502
aff	-2503
idge	-2504
▁simple	-2505
▁direction	-2506
non	-2507
ugg	-2508
▁gro	-2509
▁blind	-2510
▁peculiar	-2511
▁bold	-2512
▁race	-2513
▁Morcerf	-2514
▁greater	-2515
▁marriage	-2516
dom	-2517
▁King	-2518
▁shut	-2519
▁noble	-2520
▁attempt	-2521
▁und	-2522
jo	-2523
This	-2524
ision	-2525
▁cost	-2526
▁silver	-2527
▁covered	-2528
▁noticed	-2529
ding	-2530
▁Fau	-2531
▁trave	-2532
pecially	-2533
▁outside	-2534
▁perform	-2535
anging	-2536
▁Plato	-2537
▁formed	-2538
▁probably	-2539
aped	-2540
▁lif	-2541
▁running	-2542
teen	-2543
▁pull	-2544
▁seven	-2545
▁courage	-2546
OU	-2547
▁brave	-2548
▁deser	-2549
▁getting	-2550
pend	-2551
▁van	-2552
▁aston	-2553
▁giving	-2554
▁includ	-2555
▁meaning	-2556
▁lean	-2557
▁smoke	-2558
ously	-2559
▁died	-2560
▁save	-2561
▁lower	-2562
▁treat	-2563
▁beauty	-2564
▁result	-2565
Now	-2566
ades	-2567
▁conn	-2568
▁infl	-2569
▁walls	-2570
▁slowly	-2571
Come	-2572
cely	-2573
▁pit	-2574
▁leaving	-2575
verse	-2576
▁educ	-2577
▁fier	-2578
▁da	-2579
reme	-2580
▁simp	-2581
▁wide	-2582
▁apart	-2583
▁France	-2584
▁fallen	-2585
othy	-2586
urch	-2587
▁send	-2588
▁broad	-2589
▁early	-2590
▁passing	-2591
▁pa	-2592
▁Bar	-2593
▁maj	-2594
▁bank	-2595
▁pity	-2596
▁asleep	-2597
▁afterwards	-2598
now	-2599
ague	-2600
▁Troj	-2601
▁exact	-2602
▁Dorothy	-2603
Book	-2604
▁por	-2605
▁becom	-2606
▁passage	-2607
urs	-2608
ring	-2609
▁suc	-2610
▁succeed	-2611
▁expected	-2612
ests	-2613
▁pun	-2614
▁var	-2615
▁cart	-2616
erable	-2617
▁absolute	-2618
ys	-2619
▁Mar	-2620
▁months	-2621
RE	-2622
ólo	-2623
ishop	-2624
▁bott	-2625
▁incre	-2626
▁comfort	-2627
▁married	-2628
uit	-2629
▁prec	-2630
OM	-2631
go	-2632
aded	-2633
aval	-2634
▁grow	-2635
hale	-2636
▁furn	-2637
▁advant	-2638
▁listened	-2639
ici	-2640
▁cab	-2641
▁rid	-2642
▁Arch	-2643
▁Pooh	-2644
▁angry	-2645
▁greatest	-2646
SE	-2647
ories	-2648
▁trying	-2649
inal	-2650
▁defe	-2651
tended	-2652
▁shoulders	-2653
▁especially	-2654
▁police	-2655
▁smiled	-2656
▁despair	-2657
▁important	-2658
▁deg	-2659
▁que	-2660
ences	-2661
▁dust	-2662
▁trouble	-2663
uge	-2664
▁med	-2665
▁chair	-2666
▁concl	-2667
▁holding	-2668
TI	-2669
ma	-2670
▁stat	-2671
▁lying	-2672
▁separ	-2673
▁servant	-2674
ski	-2675
itated	-2676
▁burst	-2677
ertainly	-2678
▁collect	-2679
▁quarter	-2680
▁retreat	-2681
000	-2682
▁Ag	-2683
▁mel	-2684
▁smiling	-2685
ners	-2686
oured	-2687
▁bell	-2688
ishing	-2689
▁polit	-2690
▁barric	-2691
▁orig	-2692
▁ideas	-2693
▁surprise	-2694
III	-2695
aire	-2696
▁determ	-2697
▁commander	-2698
▁fee	-2699
▁party	-2700
ompan	-2701
osing	-2702
▁Rome	-2703
▁super	-2704
▁according	-2705
▁seat	-2706
▁notice	-2707
▁whatever	-2708
▁civ	-2709
▁cand	-2710
▁ancient	-2711
Not	-2712
rect	-2713
sequ	-2714
▁arg	-2715
▁river	-2716
▁easily	-2717
▁figure	-2718
▁possib	-2719
To	-2720
aly	-2721
uly	-2722
ship	-2723
▁heads	-2724
▁Bennet	-2725
▁perfectly	-2726
UL	-2727
eks	-2728
ike	-2729
▁Tr	-2730
▁note	-2731
▁piece	-2732
▁United	-2733
mond	-2734
pper	-2735
▁clo	-2736
cript	-2737
▁liber	-2738
▁rage	-2739
▁spite	-2740
▁regiment	-2741
axim	-2742
▁empt	-2743
▁gate	-2744
irtier	-2745
▁grief	-2746
▁houses	-2747
do	-2748
held	-2749
▁Just	-2750
▁hunt	-2751
icense	-2752
▁sides	-2753
▁everyone	-2754
ior	-2755
▁dw	-2756
▁tree	-2757
▁eBook	-2758
▁unknown	-2759
▁difficult	-2760
joy	-2761
▁sy	-2762
▁divine	-2763
▁allowed	-2764
▁persons	-2765
▁excellency	-2766
bor	-2767
wor	-2768
▁Ph	-2769
wise	-2770
▁fro	-2771
▁phy	-2772
▁pract	-2773
▁journey	-2774
▁reflect	-2775
▁disappeared	-2776
ais	-2777
uss	-2778
▁ves	-2779
▁eager	-2780
▁Noirtier	-2781
oh	-2782
ays	-2783
yal	-2784
▁La	-2785
▁situ	-2786
▁lives	-2787
cial	-2788
happ	-2789
▁Yet	-2790
inite	-2791
▁Mont	-2792
▁flew	-2793
▁priv	-2794
▁faith	-2795
▁rising	-2796
▁receive	-2797
▁serious	-2798
▁support	-2799
▁contrary	-2800
Is	-2801
ton	-2802
▁surr	-2803
ólokhov	-2804
▁pleased	-2805
ingu	-2806
ouis	-2807
▁blow	-2808
▁lies	-2809
▁poet	-2810
▁bread	-2811
▁sharp	-2812
▁charge	-2813
▁tender	-2814
▁feelings	-2815
▁twel	-2816
seless	-2817
▁teeth	-2818
▁golden	-2819
▁Dólokhov	-2820
pic	-2821
▁Such	-2822
▁commun	-2823
ails	-2824
ashed	-2825
▁exec	-2826
▁scene	-2827
▁health	-2828
▁company	-2829
▁interrupt	-2830
esty	-2831
▁har	-2832
▁island	-2833
▁spring	-2834
▁vessel	-2835
OOK	-2836
ald	-2837
▁thin	-2838
▁music	-2839
▁stern	-2840
▁dressed	-2841
ien	-2842
ator	-2843
▁win	-2844
▁Homer	-2845
▁oblig	-2846
ishment	-2847
gy	-2848
iod	-2849
bered	-2850
▁appears	-2851
ming	-2852
▁hide	-2853
ushing	-2854
,000	-2855
rate	-2856
▁hot	-2857
ander	-2858
enced	-2859
ested	-2860
▁stro	-2861
▁Whale	-2862
▁class	-2863
iterary	-2864
▁crew	-2865
▁false	-2866
▁shadow	-2867
▁virtue	-2868
▁promise	-2869
—“	-2870
▁bent	-2871
▁food	-2872
▁spect	-2873
ham	-2874
They	-2875
ases	-2876
lsing	-2877
▁sake	-2878
▁bless	-2879
▁Helsing	-2880
rid	-2881
▁er	-2882
come	-2883
play	-2884
ulty	-2885
▁Per	-2886
▁smo	-2887
agraph	-2888
▁enjoy	-2889
▁bottom	-2890
▁showed	-2891
▁opposite	-2892
▁paragraph	-2893
fast	-2894
gged	-2895
lemn	-2896
▁sch	-2897
▁tall	-2898
fortun	-2899
ingley	-2900
▁proud	-2901
▁shook	-2902
▁yield	-2903
▁minute	-2904
▁solemn	-2905
▁terror	-2906
▁thunder	-2907
org	-2908
rea	-2909
▁snow	-2910
▁events	-2911
▁Captain	-2912
▁touched	-2913
arily	-2914
ilian	-2915
▁safe	-2916
pected	-2917
▁Bingley	-2918
▁Monsieur	-2919
▁questions	-2920
how	-2921
▁Ly	-2922
▁dim	-2923
▁fun	-2924
idered	-2925
▁imper	-2926
▁langu	-2927
▁noise	-2928
▁sword	-2929
▁histor	-2930
cr	-2931
▁XV	-2932
athan	-2933
▁imagine	-2934
▁accompan	-2935
kh	-2936
ís	-2937
pon	-2938
rill	-2939
▁started	-2940
ustration	-2941
▁distingu	-2942
▁entirely	-2943
tled	-2944
ument	-2945
▁murm	-2946
▁habit	-2947
▁Br	-2948
race	-2949
▁sli	-2950
▁Merc	-2951
▁legs	-2952
▁drawn	-2953
▁ignor	-2954
ception	-2955
▁conscious	-2956
ye	-2957
aste	-2958
▁eld	-2959
ortun	-2960
▁obey	-2961
▁pict	-2962
▁yell	-2963
▁ships	-2964
▁gentlemen	-2965
▁ears	-2966
▁pointed	-2967
▁finished	-2968
▁difficulty	-2969
▁See	-2970
arked	-2971
▁conqu	-2972
▁trust	-2973
▁twelve	-2974
▁various	-2975
So	-2976
oted	-2977
roche	-2978
▁gazed	-2979
▁access	-2980
▁stream	-2981
▁ourselves	-2982
yl	-2983
hel	-2984
▁knees	-2985
▁Andrea	-2986
▁assist	-2987
▁changed	-2988
▁concern	-2989
olog	-2990
▁Gav	-2991
▁aim	-2992
▁ble	-2993
▁beat	-2994
ounced	-2995
▁broke	-2996
▁letters	-2997
▁visible	-2998
▁dreadful	-2999
▁shoulder	-3000
dd	-3001
kes	-3002
ouds	-3003
▁pac	-3004
▁Jane	-3005
▁rise	-3006
▁sacri	-3007
▁seated	-3008
▁Gavroche	-3009
▁observed	-3010
▁affection	-3011
▁dart	-3012
▁path	-3013
▁sens	-3014
▁drove	-3015
ference	-3016
theless	-3017
▁forced	-3018
▁knowing	-3019
▁scarcely	-3020
rop	-3021
ruct	-3022
▁gen	-3023
▁hid	-3024
▁wol	-3025
▁dare	-3026
▁tail	-3027
▁Edmond	-3028
rer	-3029
ples	-3030
▁Min	-3031
tering	-3032
▁barricade	-3033
▁Lord	-3034
▁bore	-3035
▁vast	-3036
▁famil	-3037
▁storm	-3038
lin	-3039
oup	-3040
rem	-3041
ilar	-3042
▁Made	-3043
▁amid	-3044
▁bare	-3045
▁ring	-3046
levent	-3047
▁fifty	-3048
▁royal	-3049
▁caused	-3050
▁myster	-3051
iny	-3052
onel	-3053
▁ant	-3054
▁cook	-3055
▁press	-3056
▁listen	-3057
▁suffici	-3058
▁6	-3059
THE	-3060
zen	-3061
lovna	-3062
retch	-3063
▁unhapp	-3064
▁creature	-3065
oved	-3066
emark	-3067
▁Anna	-3068
▁capt	-3069
▁miss	-3070
father	-3071
▁indic	-3072
▁recei	-3073
▁moving	-3074
▁display	-3075
▁abb	-3076
▁moon	-3077
▁write	-3078
▁Gregor	-3079
▁beheld	-3080
▁church	-3081
CT	-3082
iff	-3083
ray	-3084
▁ur	-3085
▁tow	-3086
uting	-3087
▁Beau	-3088
ternal	-3089
▁board	-3090
▁decided	-3091
▁learned	-3092
▁education	-3093
atic	-3094
pered	-3095
▁Lond	-3096
▁cloud	-3097
▁faces	-3098
▁affair	-3099
▁honour	-3100
▁places	-3101
▁contain	-3102
▁existence	-3103
?"	-3104
éd	-3105
▁Lucy	-3106
▁lose	-3107
▁shud	-3108
iction	-3109
▁Fauche	-3110
▁village	-3111
▁trembling	-3112
anqu	-3113
▁avo	-3114
leine	-3115
▁fool	-3116
▁Borís	-3117
▁intro	-3118
▁worse	-3119
▁inquired	-3120
▁Madeleine	-3121
▁advantage	-3122
▁presented	-3123
▁frightened	-3124
▁Fauchelevent	-3125
uls	-3126
burg	-3127
▁aside	-3128
ability	-3129
▁Archive	-3130
▁chamber	-3131
▁Dr	-3132
Good	-3133
aves	-3134
aling	-3135
olved	-3136
▁Literary	-3137
ghed	-3138
▁stop	-3139
▁wrote	-3140
▁ladies	-3141
▁simply	-3142
CE	-3143
▁loc	-3144
ament	-3145
▁didn	-3146
▁Their	-3147
▁fault	-3148
▁clothes	-3149
▁conduct	-3150
▁disg	-3151
▁ming	-3152
ashion	-3153
▁flight	-3154
▁repres	-3155
▁thrown	-3156
Ill	-3157
Who	-3158
▁rock	-3159
▁rode	-3160
▁vent	-3161
▁wise	-3162
▁girls	-3163
▁influ	-3164
▁touch	-3165
▁London	-3166
▁attend	-3167
▁spoken	-3168
▁confess	-3169
▁walking	-3170
▁profound	-3171
while	-3172
▁coff	-3173
▁goes	-3174
▁weep	-3175
▁admir	-3176
▁alive	-3177
▁superi	-3178
▁unable	-3179
▁approached	-3180
bl	-3181
Let	-3182
she	-3183
umn	-3184
aked	-3185
▁rushed	-3186
▁voices	-3187
▁streets	-3188
cure	-3189
▁Mart	-3190
▁dism	-3191
▁magn	-3192
▁begun	-3193
▁obtain	-3194
▁period	-3195
▁However	-3196
▁ordered	-3197
▁servants	-3198
▁Pé	-3199
arsh	-3200
▁parts	-3201
▁gloomy	-3202
▁military	-3203
▁occurred	-3204
▁perceived	-3205
Illustration	-3206
?—	-3207
▁Sun	-3208
▁strugg	-3209
▁opening	-3210
▁passion	-3211
▁uttered	-3212
▁forgotten	-3213
amb	-3214
app	-3215
ieu	-3216
set	-3217
ulf	-3218
▁IN	-3219
▁Bou	-3220
▁sac	-3221
▁sen	-3222
▁Aust	-3223
▁BOOK	-3224
▁aband	-3225
▁likely	-3226
▁unless	-3227
▁windows	-3228
▁condition	-3229
▁awa	-3230
▁inh	-3231
▁Your	-3232
▁bird	-3233
▁ende	-3234
▁phys	-3235
lemachus	-3236
▁writing	-3237
aximilian	-3238
▁distinct	-3239
▁intellig	-3240
ING	-3241
▁fancy	-3242
▁offer	-3243
▁require	-3244
▁occupied	-3245
iles	-3246
▁Jon	-3247
izing	-3248
▁equal	-3249
▁Greece	-3250
▁engaged	-3251
▁opportun	-3252
▁property	-3253
▁philosophy	-3254
▁remembered	-3255
▁sple	-3256
▁Bishop	-3257
▁handsome	-3258
LE	-3259
af	-3260
cle	-3261
lex	-3262
▁crown	-3263
▁suffer	-3264
▁talked	-3265
▁advanced	-3266
tya	-3267
▁Gu	-3268
▁hes	-3269
▁ver	-3270
▁harp	-3271
▁shot	-3272
▁sick	-3273
▁compl	-3274
▁clouds	-3275
▁besides	-3276
▁hurried	-3277
gs	-3278
gin	-3279
▁Re	-3280
hest	-3281
soci	-3282
▁Vas	-3283
▁cho	-3284
▁More	-3285
▁Will	-3286
▁abbé	-3287
▁cheer	-3288
▁grace	-3289
▁swift	-3290
attered	-3291
▁remarked	-3292
▁Go	-3293
▁fla	-3294
▁entr	-3295
▁extra	-3296
▁papers	-3297
▁sacred	-3298
▁mentioned	-3299
▁neg	-3300
▁hall	-3301
▁seek	-3302
▁Peters	-3303
▁memory	-3304
▁explain	-3305
▁impress	-3306
▁considered	-3307
ios	-3308
atsby	-3309
▁sons	-3310
▁empty	-3311
▁enorm	-3312
▁horror	-3313
▁recall	-3314
▁resemb	-3315
▁superior	-3316
Where	-3317
chief	-3318
terday	-3319
▁lines	-3320
▁advance	-3321
▁donations	-3322
▁bod	-3323
▁midst	-3324
▁associ	-3325
▁inquir	-3326
▁wealth	-3327
▁prepared	-3328
▁satisfied	-3329
▁trademark	-3330
ech	-3331
uses	-3332
▁sym	-3333
▁pure	-3334
▁Pétya	-3335
▁counten	-3336
▁circumstances	-3337
ka	-3338
án	-3339
ín	-3340
acy	-3341
rif	-3342
aker	-3343
édès	-3344
▁ris	-3345
▁civil	-3346
▁dying	-3347
▁looks	-3348
▁glanced	-3349
.,	-3350
vi	-3351
con	-3352
olk	-3353
cian	-3354
▁Bes	-3355
▁Com	-3356
▁Tom	-3357
▁fet	-3358
▁jump	-3359
▁speed	-3360
▁warri	-3361
▁preser	-3362
▁thirty	-3363
▁discovered	-3364
——”	-3365
▁deck	-3366
▁mour	-3367
▁ones	-3368
▁chest	-3369
▁devil	-3370
▁takes	-3371
▁splend	-3372
▁affairs	-3373
▁rapidly	-3374
▁wretched	-3375
▁surprised	-3376
▁government	-3377
ex	-3378
pse	-3379
▁[1	-3380
antic	-3381
▁rain	-3382
▁Stubb	-3383
▁gives	-3384
ancholy	-3385
▁Gatsby	-3386
▁parent	-3387
▁charming	-3388
ae	-3389
▁der	-3390
▁gar	-3391
ruction	-3392
▁Father	-3393
▁endeav	-3394
▁mighty	-3395
▁sought	-3396
▁resumed	-3397
▁prisoner	-3398
AL	-3399
jol	-3400
▁fish	-3401
ndered	-3402
▁prove	-3403
▁bitter	-3404
▁higher	-3405
▁reading	-3406
ED	-3407
IL	-3408
no	-3409
nde	-3410
▁XX	-3411
▁pet	-3412
▁tyr	-3413
champ	-3414
▁Come	-3415
▁Vasí	-3416
▁pier	-3417
▁star	-3418
orious	-3419
▁similar	-3420
▁laughing	-3421
▁recollect	-3422
▁Ex	-3423
▁Two	-3424
istol	-3425
▁consequ	-3426
▁Telemachus	-3427
▁et	-3428
▁unf	-3429
▁Only	-3430
▁unex	-3431
▁glory	-3432
▁distant	-3433
▁suitors	-3434
▁acquaint	-3435
▁breakfast	-3436
▁companion	-3437
mer	-3438
uee	-3439
unk	-3440
queg	-3441
upid	-3442
gress	-3443
▁brow	-3444
▁join	-3445
ormand	-3446
▁shame	-3447
ueequeg	-3448
▁height	-3449
▁fashion	-3450
▁obliged	-3451
▁Maximilian	-3452
▁philosopher	-3453
vey	-3454
▁wed	-3455
iform	-3456
▁stir	-3457
▁space	-3458
▁behold	-3459
▁fields	-3460
▁served	-3461
▁waited	-3462
▁clearly	-3463
▁introdu	-3464
▁melancholy	-3465
zz	-3466
▁Gr	-3467
▁coll	-3468
action	-3469
▁innoc	-3470
▁powers	-3471
▁sprang	-3472
▁possession	-3473
gel	-3474
pond	-3475
▁aid	-3476
▁alt	-3477
▁dam	-3478
▁uni	-3479
aming	-3480
▁thro	-3481
jolras	-3482
▁decla	-3483
▁design	-3484
▁laughed	-3485
po	-3486
pir	-3487
▁Cl	-3488
▁Fl	-3489
umph	-3490
▁dom	-3491
▁gain	-3492
▁examp	-3493
▁vague	-3494
▁double	-3495
▁uniform	-3496
▁generally	-3497
▁Petersburg	-3498
!—	-3499
▁Me	-3500
cies	-3501
▁Sil	-3502
▁pati	-3503
▁forms	-3504
▁matters	-3505
▁offered	-3506
▁witness	-3507
▁expressed	-3508
zy	-3509
▁ash	-3510
▁fold	-3511
▁sugg	-3512
▁Louis	-3513
▁crime	-3514
▁shock	-3515
▁uneas	-3516
▁bridge	-3517
▁happen	-3518
▁paused	-3519
▁produced	-3520
▁excellent	-3521
When	-3522
athe	-3523
long	-3524
▁mir	-3525
▁nose	-3526
▁build	-3527
▁freed	-3528
▁knock	-3529
▁repro	-3530
▁mysterious	-3531
▁recognized	-3532
ée	-3533
ran	-3534
ether	-3535
▁roof	-3536
racted	-3537
vering	-3538
▁supper	-3539
▁threat	-3540
▁Enjolras	-3541
▁Mercédès	-3542
▁Sm	-3543
▁id	-3544
▁May	-3545
▁amb	-3546
▁cow	-3547
▁earn	-3548
▁degree	-3549
▁yellow	-3550
▁evident	-3551
▁extreme	-3552
▁flowers	-3553
▁unhappy	-3554
▁Tz	-3555
kind	-3556
this	-3557
▁key	-3558
▁Cour	-3559
▁reve	-3560
▁tong	-3561
▁share	-3562
▁spent	-3563
osition	-3564
▁explan	-3565
rac	-3566
irst	-3567
oped	-3568
▁sor	-3569
▁week	-3570
▁Greeks	-3571
▁moments	-3572
▁enormous	-3573
▁permission	-3574
nce	-3575
ohn	-3576
anted	-3577
▁Even	-3578
▁nine	-3579
eneral	-3580
▁slain	-3581
▁search	-3582
▁whales	-3583
▁Beauchamp	-3584
bre	-3585
▁pi	-3586
crow	-3587
uded	-3588
▁AND	-3589
▁cit	-3590
▁fill	-3591
▁Never	-3592
▁encoun	-3593
▁pistol	-3594
▁discuss	-3595
▁pressed	-3596
▁addressed	-3597
▁interrupted	-3598
ept	-3599
ulous	-3600
itable	-3601
▁Greek	-3602
▁depth	-3603
▁favor	-3604
▁pride	-3605
▁Vasíli	-3606
▁nearer	-3607
▁burning	-3608
▁meeting	-3609
▁remains	-3610
▁triumph	-3611
▁promised	-3612
▁countenance	-3613
St	-3614
aud	-3615
cil	-3616
str	-3617
onap	-3618
▁Man	-3619
inced	-3620
inous	-3621
▁beast	-3622
▁proof	-3623
▁mortal	-3624
▁curious	-3625
▁someone	-3626
▁everybody	-3627
Here	-3628
▁Car	-3629
▁due	-3630
illen	-3631
▁accom	-3632
▁falling	-3633
▁hearing	-3634
▁immense	-3635
▁information	-3636
OL	-3637
ao	-3638
my	-3639
nat	-3640
ital	-3641
inated	-3642
▁Gillen	-3643
▁Trojan	-3644
▁science	-3645
▁required	-3646
▁singular	-3647
▁listening	-3648
TH	-3649
She	-3650
▁du	-3651
look	-3652
will	-3653
▁mix	-3654
▁sav	-3655
ardon	-3656
▁Alex	-3657
▁fond	-3658
▁saved	-3659
▁thank	-3660
▁contem	-3661
▁narrow	-3662
▁Gillenormand	-3663
▁Ap	-3664
acle	-3665
▁Ger	-3666
▁pop	-3667
▁sin	-3668
▁cell	-3669
▁emer	-3670
▁coach	-3671
▁names	-3672
▁distur	-3673
▁dropped	-3674
▁carefully	-3675
▁yesterday	-3676
▁particularly	-3677
▁adj	-3678
▁march	-3679
▁watched	-3680
ify	-3681
Your	-3682
▁pra	-3683
board	-3684
usted	-3685
▁meth	-3686
▁clean	-3687
▁worthy	-3688
▁ge	-3689
▁aud	-3690
▁John	-3691
▁lord	-3692
▁bowed	-3693
▁grasp	-3694
▁liberty	-3695
▁removed	-3696
All	-3697
rom	-3698
arse	-3699
arest	-3700
▁baron	-3701
▁delic	-3702
▁faint	-3703
▁frequ	-3704
▁comply	-3705
▁inside	-3706
▁settled	-3707
▁station	-3708
▁language	-3709
▁grandfather	-3710
áv	-3711
teau	-3712
▁Jul	-3713
imate	-3714
▁fart	-3715
▁rule	-3716
arecrow	-3717
▁kissed	-3718
▁shadows	-3719
▁forehead	-3720
CH	-3721
bers	-3722
enth	-3723
keep	-3724
▁Lady	-3725
▁asce	-3726
antine	-3727
▁drive	-3728
▁inhab	-3729
▁sorry	-3730
▁finger	-3731
▁lifted	-3732
▁tomorrow	-3733
▁watching	-3734
ww	-3735
—”	-3736
oman	-3737
▁Long	-3738
▁song	-3739
ainted	-3740
▁hurry	-3741
▁believed	-3742
él	-3743
gar	-3744
sar	-3745
enge	-3746
rain	-3747
astic	-3748
▁grown	-3749
▁Though	-3750
▁curios	-3751
▁custom	-3752
▁temper	-3753
▁fingers	-3754
▁possessed	-3755
sy	-3756
▁gh	-3757
ites	-3758
▁Pig	-3759
▁foe	-3760
▁Sper	-3761
▁luck	-3762
▁rejo	-3763
▁forty	-3764
▁misery	-3765
▁stupid	-3766
▁wishes	-3767
▁Scarecrow	-3768
▁miserable	-3769
▁situation	-3770
**	-3771
cean	-3772
▁181	-3773
▁cup	-3774
▁sum	-3775
▁voy	-3776
▁cred	-3777
▁throw	-3778
▁pleasant	-3779
▁supposed	-3780
▁experience	-3781
▁opportunity	-3782
isc	-3783
▁ow	-3784
▁Don	-3785
essor	-3786
▁grass	-3787
▁haste	-3788
▁waves	-3789
▁modern	-3790
▁weight	-3791
oms	-3792
rope	-3793
▁fra	-3794
▁inj	-3795
▁Anat	-3796
▁feat	-3797
▁Still	-3798
▁persu	-3799
▁exactly	-3800
▁growing	-3801
▁fit	-3802
▁fury	-3803
▁roll	-3804
▁brain	-3805
▁judge	-3806
▁License	-3807
▁absence	-3808
▁arrival	-3809
▁previous	-3810
com	-3811
itz	-3812
illy	-3813
reet	-3814
▁ruin	-3815
▁relig	-3816
▁troub	-3817
▁asking	-3818
▁states	-3819
atherine	-3820
▁Anatole	-3821
▁useless	-3822
▁lod	-3823
asing	-3824
▁Coll	-3825
▁huge	-3826
▁loss	-3827
▁preced	-3828
▁unjust	-3829
▁greatly	-3830
▁quietly	-3831
▁Certainly	-3832
áy	-3833
fty	-3834
por	-3835
▁Con	-3836
▁dawn	-3837
▁deli	-3838
▁mess	-3839
▁sand	-3840
▁circle	-3841
▁office	-3842
▁peasant	-3843
▁experienced	-3844
ino	-3845
erva	-3846
oura	-3847
▁Our	-3848
▁sew	-3849
▁Char	-3850
▁comr	-3851
▁pick	-3852
▁souls	-3853
▁leaves	-3854
▁spirits	-3855
▁unexpected	-3856
.)	-3857
using	-3858
▁wore	-3859
▁method	-3860
▁apparent	-3861
▁curiosity	-3862
1.	-3863
bray	-3864
dess	-3865
itch	-3866
▁uns	-3867
▁grat	-3868
▁Silver	-3869
▁ceased	-3870
▁condem	-3871
▁fierce	-3872
▁century	-3873
▁somewhat	-3874
On	-3875
mp	-3876
alt	-3877
▁Col	-3878
▁Rep	-3879
▁sink	-3880
▁Besides	-3881
▁Minerva	-3882
▁telling	-3883
▁instinct	-3884
▁neighbor	-3885
▁described	-3886
▁including	-3887
▁influence	-3888
arr	-3889
ker	-3890
▁Ad	-3891
cher	-3892
iety	-3893
with	-3894
▁Had	-3895
field	-3896
▁Mina	-3897
▁bull	-3898
▁Somet	-3899
▁books	-3900
▁group	-3901
▁Piglet	-3902
▁engage	-3903
▁heroes	-3904
▁Nothing	-3905
▁example	-3906
▁Catherine	-3907
▁whispered	-3908
ux	-3909
▁XI	-3910
▁hy	-3911
case	-3912
hold	-3913
urse	-3914
▁feared	-3915
▁speech	-3916
▁thrust	-3917
▁accompl	-3918
▁victory	-3919
▁horrible	-3920
▁necessity	-3921
RO	-3922
▁II	-3923
atch	-3924
▁dry	-3925
▁guns	-3926
▁pack	-3927
▁doors	-3928
▁guess	-3929
▁stock	-3930
▁Before	-3931
▁mingled	-3932
▁private	-3933
▁instantly	-3934
arb	-3935
law	-3936
▁Eu	-3937
▁deb	-3938
▁Socr	-3939
▁Very	-3940
▁Wood	-3941
▁sigh	-3942
▁Great	-3943
▁using	-3944
▁concer	-3945
▁mankind	-3946
▁difference	-3947
acc	-3948
ope	-3949
uce	-3950
▁gay	-3951
asons	-3952
ounds	-3953
▁wolf	-3954
▁Having	-3955
▁cannon	-3956
▁special	-3957
▁succeeded	-3958
ids	-3959
irm	-3960
▁dogs	-3961
stairs	-3962
▁Debray	-3963
▁shield	-3964
▁fighting	-3965
▁principle	-3966
▁understanding	-3967
lly	-3968
▁Ab	-3969
▁born	-3970
▁shown	-3971
ustomed	-3972
▁agreed	-3973
▁becomes	-3974
▁crossed	-3975
▁freedom	-3976
▁familiar	-3977
UT	-3978
oop	-3979
▁TO	-3980
▁Can	-3981
ables	-3982
▁amaz	-3983
▁impro	-3984
▁anxious	-3985
▁provide	-3986
▁suffering	-3987
▁explanation	-3988
ENT	-3989
ams	-3990
ule	-3991
clus	-3992
▁lar	-3993
▁mot	-3994
▁fail	-3995
▁citiz	-3996
▁slept	-3997
▁hollow	-3998
▁priest	-3999
▁farther	-4000
▁keeping	-4001
▁monster	-4002
▁entering	-4003
▁extraord	-4004
▁intended	-4005
01	-4006
▁batt	-4007
▁lamp	-4008
▁birds	-4009
▁reign	-4010
▁twice	-4011
▁arrest	-4012
▁putting	-4013
▁convinced	-4014
▁Thr	-4015
▁rad	-4016
olkón	-4017
▁West	-4018
▁tomb	-4019
▁birth	-4020
▁boats	-4021
▁flies	-4022
▁hopes	-4023
▁stars	-4024
▁favour	-4025
▁tranqu	-4026
▁lighted	-4027
▁monarch	-4028
▁descended	-4029
▁completely	-4030
▁motionless	-4031
RI	-4032
rees	-4033
▁fatal	-4034
▁indif	-4035
▁advice	-4036
▁assemb	-4037
▁calcul	-4038
▁impati	-4039
▁pieces	-4040
▁pulled	-4041
▁suspic	-4042
▁convent	-4043
▁excited	-4044
▁process	-4045
▁concealed	-4046
▁prisoners	-4047
▁8	-4048
OME	-4049
ias	-4050
ivity	-4051
ernand	-4052
▁adjut	-4053
▁brill	-4054
▁cloak	-4055
▁ranks	-4056
▁clever	-4057
▁reality	-4058
▁communic	-4059
▁discover	-4060
▁suffered	-4061
▁determined	-4062
▁considerable	-4063
▁Rob	-4064
▁Prof	-4065
ickham	-4066
▁chari	-4067
▁estab	-4068
▁hence	-4069
▁liked	-4070
▁German	-4071
▁combat	-4072
▁Fantine	-4073
▁counsel	-4074
▁mistake	-4075
▁protect	-4076
▁entrance	-4077
▁mistaken	-4078
----------------	-4079
Al	-4080
▁Pat	-4081
▁tax	-4082
there	-4083
▁rare	-4084
arbuck	-4085
▁aware	-4086
▁minds	-4087
▁rooms	-4088
▁honest	-4089
▁marked	-4090
▁wicked	-4091
▁escaped	-4092
gutenberg	-4093
▁directed	-4094
▁concerning	-4095
Go	-4096
UR	-4097
port	-4098
isher	-4099
ospit	-4100
rehen	-4101
▁task	-4102
▁ideal	-4103
▁advent	-4104
▁hearts	-4105
▁surrounded	-4106
mon	-4107
▁LI	-4108
rors	-4109
▁scr	-4110
ailed	-4111
▁shoes	-4112
▁taste	-4113
▁withd	-4114
▁yours	-4115
▁madame	-4116
▁pushed	-4117
▁Are	-4118
▁sty	-4119
cknow	-4120
▁cous	-4121
▁mast	-4122
fortune	-4123
▁reader	-4124
▁regret	-4125
▁finally	-4126
▁violent	-4127
▁Socrates	-4128
▁directly	-4129
▁explained	-4130
▁wonderful	-4131
▁extraordinary	-4132
azz	-4133
yrac	-4134
▁III	-4135
▁rob	-4136
▁hate	-4137
▁pron	-4138
▁anger	-4139
▁lofty	-4140
▁match	-4141
▁spear	-4142
▁choose	-4143
▁stands	-4144
cription	-4145
▁Collins	-4146
▁Wickham	-4147
▁assured	-4148
▁goddess	-4149
▁highest	-4150
▁regular	-4151
▁progress	-4152
As	-4153
▁Ge	-4154
house	-4155
▁gest	-4156
▁admit	-4157
▁acknow	-4158
▁scream	-4159
▁murmured	-4160
▁absolutely	-4161
dia	-4162
anti	-4163
▁lot	-4164
ounce	-4165
▁Good	-4166
▁ways	-4167
▁feast	-4168
▁interp	-4169
▁prefer	-4170
▁winter	-4171
▁hastily	-4172
▁singing	-4173
▁Professor	-4174
Are	-4175
can	-4176
olt	-4177
rap	-4178
ère	-4179
coat	-4180
▁dull	-4181
▁ease	-4182
▁myst	-4183
▁symp	-4184
utions	-4185
▁delay	-4186
▁staff	-4187
▁points	-4188
▁sounds	-4189
▁General	-4190
▁parents	-4191
▁unfortun	-4192
▁approaching	-4193
AD	-4194
noon	-4195
ture	-4196
▁Lion	-4197
▁sire	-4198
▁miles	-4199
▁stair	-4200
▁flying	-4201
▁interv	-4202
▁Starbuck	-4203
▁departure	-4204
▁accustomed	-4205
▁7	-4206
▁rum	-4207
▁tum	-4208
dered	-4209
▁hole	-4210
▁pair	-4211
▁claim	-4212
▁truly	-4213
▁proved	-4214
▁tongue	-4215
olkónski	-4216
▁England	-4217
▁arrange	-4218
▁splendid	-4219
▁confidence	-4220
eys	-4221
▁invol	-4222
▁Europe	-4223
▁infant	-4224
▁precise	-4225
▁destroyed	-4226
dig	-4227
face	-4228
▁Was	-4229
aches	-4230
▁appo	-4231
▁aunt	-4232
▁diss	-4233
▁gaze	-4234
▁Bonap	-4235
▁venge	-4236
▁attent	-4237
▁famous	-4238
▁hither	-4239
▁Fernand	-4240
▁conceal	-4241
▁emotion	-4242
▁sleeping	-4243
▁authority	-4244
▁everywhere	-4245
fl	-4246
ki	-4247
For	-4248
cio	-4249
oul	-4250
rand	-4251
venge	-4252
▁dish	-4253
iments	-4254
▁groan	-4255
▁today	-4256
▁turns	-4257
▁sovere	-4258
▁square	-4259
▁throat	-4260
▁whence	-4261
▁wedding	-4262
▁arranged	-4263
▁mountain	-4264
▁rendered	-4265
▁neighbour	-4266
▁misfortune	-4267
agg	-4268
het	-4269
leg	-4270
▁IV	-4271
aisy	-4272
estor	-4273
▁pros	-4274
▁whir	-4275
rified	-4276
▁rough	-4277
justice	-4278
▁defect	-4279
▁school	-4280
▁summer	-4281
▁profess	-4282
▁addition	-4283
▁laughter	-4284
▁conscience	-4285
orge	-4286
▁Páv	-4287
▁Tur	-4288
ucket	-4289
which	-4290
▁carp	-4291
▁rear	-4292
▁blame	-4293
▁fever	-4294
▁raise	-4295
▁desper	-4296
▁forces	-4297
▁earnest	-4298
▁Jonathan	-4299
▁regarded	-4300
▁associated	-4301
AP	-4302
agr	-4303
Have	-4304
▁sees	-4305
▁shirt	-4306
▁hospit	-4307
▁picked	-4308
▁rolled	-4309
▁voyage	-4310
▁stepped	-4311
▁accepted	-4312
▁carrying	-4313
chen	-4314
uish	-4315
▁gle	-4316
▁vig	-4317
feyrac	-4318
▁dwell	-4319
▁fully	-4320
▁smell	-4321
▁genius	-4322
▁afternoon	-4323
▁accompanied	-4324
hem	-4325
▁Fe	-4326
▁Ty	-4327
olly	-4328
rase	-4329
gment	-4330
▁chim	-4331
▁ener	-4332
▁fled	-4333
lessly	-4334
urally	-4335
▁avoid	-4336
▁calls	-4337
▁queen	-4338
▁wisdom	-4339
▁Woodman	-4340
▁project	-4341
▁demanded	-4342
▁deserted	-4343
▁infinite	-4344
▁otherwise	-4345
▁acquaintance	-4346
3.	-4347
▁Sw	-4348
▁“_	-4349
arte	-4350
ords	-4351
▁Thy	-4352
▁bul	-4353
▁elb	-4354
▁ess	-4355
stand	-4356
▁Like	-4357
▁vari	-4358
▁worn	-4359
▁elder	-4360
▁shade	-4361
▁tired	-4362
athered	-4363
▁credit	-4364
▁invent	-4365
▁efforts	-4366
▁confused	-4367
▁Courfeyrac	-4368
esh	-4369
reg	-4370
▁Ant	-4371
▁Did	-4372
▁exha	-4373
▁grad	-4374
▁Those	-4375
▁penet	-4376
▁whist	-4377
ational	-4378
▁deeply	-4379
▁request	-4380
▁contempl	-4381
▁entertain	-4382
▁recognize	-4383
▁relations	-4384
Ex	-4385
asc	-4386
att	-4387
aws	-4388
▁Aj	-4389
iece	-4390
line	-4391
road	-4392
eding	-4393
▁Hark	-4394
▁heat	-4395
▁medi	-4396
▁mult	-4397
▁catch	-4398
▁skies	-4399
▁wheel	-4400
lection	-4401
▁amount	-4402
▁pardon	-4403
▁undert	-4404
▁waters	-4405
▁constit	-4406
▁content	-4407
▁possibly	-4408
▁resolved	-4409
▁shouting	-4410
▁sufficient	-4411
▁continually	-4412
At	-4413
ault	-4414
quod	-4415
rehe	-4416
avalc	-4417
▁Each	-4418
▁exch	-4419
▁rate	-4420
▁cover	-4421
▁lance	-4422
▁named	-4423
▁ocean	-4424
▁lovely	-4425
▁refund	-4426
▁fifteen	-4427
▁shining	-4428
▁official	-4429
▁intention	-4430
02	-4431
US	-4432
,--	-4433
._--	-4434
rows	-4435
▁Pol	-4436
▁www	-4437
ators	-4438
▁glit	-4439
▁shed	-4440
▁frown	-4441
▁Pequod	-4442
▁copies	-4443
▁gazing	-4444
▁handed	-4445
▁hidden	-4446
▁social	-4447
▁useful	-4448
▁actions	-4449
▁travell	-4450
▁gathered	-4451
▁peasants	-4452
▁signific	-4453
hus	-4454
raw	-4455
unch	-4456
chant	-4457
▁dign	-4458
▁wand	-4459
▁Daisy	-4460
▁Lydia	-4461
▁spark	-4462
▁upper	-4463
▁wings	-4464
▁Russia	-4465
▁univers	-4466
▁whisper	-4467
ky	-4468
▁je	-4469
thur	-4470
▁clim	-4471
▁pill	-4472
alities	-4473
▁column	-4474
▁freely	-4475
▁Grecian	-4476
▁somewhere	-4477
▁i	-4478
ait	-4479
ène	-4480
▁[_	-4481
rose	-4482
▁ere	-4483
▁iss	-4484
▁rub	-4485
ading	-4486
ndeed	-4487
▁True	-4488
▁nice	-4489
▁weap	-4490
▁facts	-4491
▁horiz	-4492
▁shape	-4493
▁cheeks	-4494
▁strang	-4495
▁victim	-4496
▁equally	-4497
▁leaning	-4498
▁prepare	-4499
▁weather	-4500
avalcanti	-4501
▁treasure	-4502
▁om	-4503
they	-4504
ottle	-4505
▁Have	-4506
▁insp	-4507
▁wond	-4508
▁major	-4509
▁stick	-4510
▁subst	-4511
▁coffin	-4512
▁severe	-4513
▁finding	-4514
▁warrior	-4515
▁generous	-4516
▁ordinary	-4517
▁touching	-4518
▁Bolkónski	-4519
▁dangerous	-4520
▁injustice	-4521
ode	-4522
ris	-4523
fice	-4524
▁Ali	-4525
▁Ber	-4526
▁ben	-4527
▁sway	-4528
▁aloud	-4529
▁dance	-4530
▁guests	-4531
▁resist	-4532
▁retired	-4533
▁millions	-4534
▁Alexander	-4535
▁lightning	-4536
▁returning	-4537
▁Cavalcanti	-4538
Very	-4539
▁bal	-4540
▁lit	-4541
▁bill	-4542
▁oper	-4543
▁tear	-4544
ensive	-4545
ondret	-4546
ulated	-4547
▁First	-4548
▁cabin	-4549
▁cries	-4550
▁straw	-4551
▁Heaven	-4552
▁fortun	-4553
▁numbers	-4554
▁magnific	-4555
▁provided	-4556
▁stronger	-4557
▁astonishment	-4558
▁mal	-4559
ugust	-4560
▁crim	-4561
▁game	-4562
▁lest	-4563
▁wear	-4564
isions	-4565
▁benef	-4566
▁dared	-4567
▁flame	-4568
▁ghost	-4569
▁wants	-4570
▁assure	-4571
▁poison	-4572
▁stairs	-4573
▁Jondret	-4574
▁entreat	-4575
▁immortal	-4576
▁original	-4577
▁sacrifice	-4578
5.	-4579
Be	-4580
herd	-4581
omme	-4582
uing	-4583
▁ren	-4584
ature	-4585
ighed	-4586
▁Coss	-4587
▁date	-4588
▁Again	-4589
▁mourn	-4590
tending	-4591
▁played	-4592
▁secure	-4593
▁thirst	-4594
▁bearing	-4595
▁nations	-4596
2.	-4597
ann	-4598
igs	-4599
omy	-4600
orse	-4601
oses	-4602
▁Gla	-4603
▁New	-4604
asted	-4605
orted	-4606
rated	-4607
▁Bert	-4608
▁drop	-4609
▁gray	-4610
▁knife	-4611
▁Arthur	-4612
▁buried	-4613
▁centre	-4614
▁cousin	-4615
▁tumult	-4616
▁wholly	-4617
Monsieur	-4618
▁Cossack	-4619
▁inspect	-4620
▁leading	-4621
▁attached	-4622
▁personal	-4623
▁intellect	-4624
OMEO	-4625
▁ens	-4626
▁ing	-4627
élène	-4628
▁Once	-4629
roclus	-4630
▁ROMEO	-4631
▁gently	-4632
▁savage	-4633
▁calling	-4634
▁desired	-4635
▁argument	-4636
▁pointing	-4637
).	-4638
hand	-4639
ilty	-4640
then	-4641
▁bor	-4642
▁Ajax	-4643
▁rope	-4644
▁check	-4645
▁pause	-4646
▁prize	-4647
▁sheep	-4648
▁animal	-4649
▁phrase	-4650
▁refuse	-4651
▁transl	-4652
▁Perhaps	-4653
▁kindness	-4654
▁muttered	-4655
▁brilliant	-4656
▁sovereign	-4657
▁importance	-4658
."]	-4659
gan	-4660
iam	-4661
work	-4662
▁Rab	-4663
▁vic	-4664
▁During	-4665
▁aspect	-4666
▁castle	-4667
▁disapp	-4668
▁driven	-4669
▁eating	-4670
▁joined	-4671
▁origin	-4672
▁stones	-4673
▁surely	-4674
▁creatures	-4675
▁interesting	-4676
ett	-4677
eur	-4678
ips	-4679
tis	-4680
aign	-4681
▁tea	-4682
▁wel	-4683
opher	-4684
orous	-4685
uccio	-4686
▁edge	-4687
▁helm	-4688
uments	-4689
▁boots	-4690
▁exceed	-4691
▁native	-4692
▁correct	-4693
▁inhabit	-4694
▁sympath	-4695
▁delighted	-4696
▁increased	-4697
▁destruction	-4698
Wh	-4699
ít	-4700
omed	-4701
▁bos	-4702
▁card	-4703
▁diam	-4704
▁fulf	-4705
▁Robin	-4706
▁lover	-4707
▁style	-4708
▁toler	-4709
▁Hélène	-4710
▁remind	-4711
▁picture	-4712
▁playing	-4713
▁working	-4714
▁adjutant	-4715
▁powerful	-4716
▁Patroclus	-4717
▁concerned	-4718
▁acquainted	-4719
▁distributing	-4720
sey	-4721
▁Oz	-4722
eral	-4723
▁crit	-4724
▁lack	-4725
▁subm	-4726
anches	-4727
keeper	-4728
umbled	-4729
▁flood	-4730
▁weeks	-4731
ogether	-4732
▁gained	-4733
▁kindly	-4734
aughters	-4735
▁Martians	-4736
▁extended	-4737
▁committed	-4738
▁represent	-4739
6.	-4740
ival	-4741
udden	-4742
▁obst	-4743
▁built	-4744
▁Section	-4745
▁Bertuccio	-4746
▁contained	-4747
▁stretched	-4748
▁imagination	-4749
thy	-4750
▁VI	-4751
rily	-4752
▁Bal	-4753
iture	-4754
▁Pont	-4755
▁fame	-4756
▁grey	-4757
▁reck	-4758
▁rust	-4759
▁yard	-4760
▁timid	-4761
▁enthus	-4762
▁needed	-4763
▁prayer	-4764
▁wretch	-4765
▁Rostóvs	-4766
▁enemies	-4767
▁heavens	-4768
▁located	-4769
▁proport	-4770
▁raising	-4771
▁sisters	-4772
▁Republic	-4773
▁Jondrette	-4774
uf	-4775
Don	-4776
apt	-4777
min	-4778
was	-4779
▁Po	-4780
osen	-4781
rict	-4782
▁kit	-4783
▁wid	-4784
....”	-4785
▁bree	-4786
▁hurt	-4787
▁swim	-4788
▁Glauc	-4789
▁falls	-4790
▁grate	-4791
▁harpo	-4792
▁kings	-4793
▁purch	-4794
▁swell	-4795
respond	-4796
▁depths	-4797
▁fourth	-4798
▁ignorant	-4799
▁minister	-4800
▁daughters	-4801
4.	-4802
AM	-4803
De	-4804
rov	-4805
zed	-4806
cent	-4807
lope	-4808
▁saf	-4809
oting	-4810
oused	-4811
illery	-4812
▁arose	-4813
▁bride	-4814
▁fetch	-4815
▁Harker	-4816
▁dreams	-4817
▁jumped	-4818
▁strike	-4819
▁thanks	-4820
▁anxiety	-4821
▁colonel	-4822
▁descend	-4823
▁mounted	-4824
▁becoming	-4825
▁citizens	-4826
▁distress	-4827
▁dressing	-4828
▁confusion	-4829
▁impression	-4830
ium	-4831
ral	-4832
▁ax	-4833
book	-4834
rier	-4835
▁Maj	-4836
▁shr	-4837
gging	-4838
itive	-4839
▁plun	-4840
▁rush	-4841
▁cruel	-4842
▁exerc	-4843
▁waist	-4844
▁Mother	-4845
▁guilty	-4846
▁medium	-4847
▁seeking	-4848
▁employed	-4849
▁relation	-4850
▁remaining	-4851
▁companions	-4852
7.	-4853
._]	-4854
bid	-4855
▁RE	-4856
acity	-4857
acles	-4858
atión	-4859
owder	-4860
▁Bagr	-4861
▁Hill	-4862
▁cler	-4863
▁decl	-4864
▁Water	-4865
▁level	-4866
▁owner	-4867
▁uncle	-4868
▁wrath	-4869
▁Rabbit	-4870
▁candle	-4871
▁kitchen	-4872
▁branches	-4873
▁Bagratión	-4874
▁correspond	-4875
fs	-4876
who	-4877
ourge	-4878
place	-4879
vious	-4880
▁cott	-4881
lished	-4882
▁absor	-4883
▁cases	-4884
▁flesh	-4885
▁merry	-4886
▁moral	-4887
▁paces	-4888
▁skill	-4889
▁observ	-4890
▁render	-4891
eanwhile	-4892
▁Through	-4893
▁surface	-4894
▁accident	-4895
▁campaign	-4896
▁cheerful	-4897
▁whenever	-4898
▁permitted	-4899
▁staircase	-4900
;—	-4901
gu	-4902
Sir	-4903
lev	-4904
mble	-4905
▁Alp	-4906
▁ban	-4907
▁bla	-4908
▁arch	-4909
▁lock	-4910
▁pant	-4911
▁sour	-4912
▁Romeo	-4913
▁caval	-4914
▁coast	-4915
▁erect	-4916
▁ident	-4917
▁serve	-4918
▁sewer	-4919
▁worst	-4920
onsense	-4921
▁Street	-4922
▁applic	-4923
▁bottle	-4924
▁couple	-4925
▁eBooks	-4926
▁proble	-4927
▁sevent	-4928
onscious	-4929
▁eternal	-4930
▁hanging	-4931
▁features	-4932
▁innocent	-4933
▁frightful	-4934
▁Christopher	-4935
key	-4936
▁[2	-4937
▁Next	-4938
▁arts	-4939
▁thor	-4940
▁toss	-4941
▁bosom	-4942
▁frame	-4943
▁plans	-4944
▁sorts	-4945
▁swall	-4946
uddenly	-4947
▁sailor	-4948
▁compass	-4949
▁measure	-4950
▁gradually	-4951
▁mountains	-4952
▁political	-4953
▁vengeance	-4954
new	-4955
upp	-4956
▁Il	-4957
aria	-4958
quis	-4959
▁bid	-4960
▁pin	-4961
oping	-4962
▁busy	-4963
▁excl	-4964
▁heap	-4965
acious	-4966
▁Hence	-4967
▁Shall	-4968
▁bones	-4969
▁gates	-4970
▁afford	-4971
▁steeds	-4972
▁assumed	-4973
▁sailors	-4974
▁Pávlovna	-4975
▁conception	-4976
oli	-4977
▁TH	-4978
▁Yu	-4979
▁Pen	-4980
▁rib	-4981
▁glim	-4982
ashing	-4983
idable	-4984
▁value	-4985
▁George	-4986
▁chosen	-4987
▁fisher	-4988
▁gather	-4989
▁desires	-4990
▁hideous	-4991
▁pursued	-4992
▁Moreover	-4993
▁examined	-4994
▁naturally	-4995
▁revolution	-4996
▁unfortunate	-4997
aul	-4998
▁ta	-4999
unte	-5000
▁ate	-5001
▁log	-5002
▁oil	-5003
▁unp	-5004
▁Eury	-5005
▁beings	-5006
▁convey	-5007
▁wooden	-5008
▁capable	-5009
▁capital	-5010
▁details	-5011
▁eagerly	-5012
▁manners	-5013
▁painful	-5014
▁princip	-5015
▁produce	-5016
▁reasons	-5017
▁composed	-5018
▁mistress	-5019
▁Nevertheless	-5020
▁distinguished	-5021
IG	-5022
▁BE	-5023
▁OR	-5024
whel	-5025
▁cru	-5026
▁lan	-5027
▁sup	-5028
bourg	-5029
▁seas	-5030
▁wake	-5031
▁wept	-5032
▁Julie	-5033
▁indul	-5034
▁mater	-5035
▁batter	-5036
▁animals	-5037
▁convict	-5038
▁procure	-5039
▁shudder	-5040
▁Russians	-5041
▁thorough	-5042
▁protected	-5043
▁distribution	-5044
AS	-5045
AT	-5046
een	-5047
uzz	-5048
▁Wu	-5049
aced	-5050
iner	-5051
▁Ind	-5052
▁YOU	-5053
lease	-5054
urity	-5055
▁holy	-5056
▁link	-5057
▁wing	-5058
▁cours	-5059
▁fears	-5060
▁existed	-5061
▁actually	-5062
▁brothers	-5063
▁maintain	-5064
▁Meanwhile	-5065
▁astonished	-5066
dy	-5067
ese	-5068
ette	-5069
geon	-5070
itle	-5071
inder	-5072
isten	-5073
▁Ital	-5074
▁inex	-5075
▁mate	-5076
▁torn	-5077
ouring	-5078
pended	-5079
▁overt	-5080
▁spare	-5081
▁excuse	-5082
▁flames	-5083
kerchief	-5084
▁admitted	-5085
▁belonged	-5086
▁informed	-5087
▁physical	-5088
▁apartment	-5089
▁altogether	-5090
▁intelligence	-5091
▁satisfaction	-5092
Av	-5093
One	-5094
arks	-5095
ueen	-5096
▁bew	-5097
▁bou	-5098
estic	-5099
▁rank	-5100
▁shru	-5101
▁tale	-5102
▁drunk	-5103
▁infer	-5104
▁ridic	-5105
▁tempt	-5106
▁murder	-5107
▁observe	-5108
▁activity	-5109
▁involunt	-5110
▁trembled	-5111
▁artillery	-5112
▁friendship	-5113
▁reflection	-5114
AG	-5115
hip	-5116
tel	-5117
áty	-5118
▁NO	-5119
iest	-5120
ores	-5121
uced	-5122
▁mud	-5123
▁Tell	-5124
▁beha	-5125
▁lear	-5126
pelled	-5127
▁loose	-5128
▁reser	-5129
▁squad	-5130
▁contro	-5131
▁crying	-5132
▁flower	-5133
▁porter	-5134
▁safety	-5135
▁furious	-5136
▁quitted	-5137
ification	-5138
▁sentence	-5139
▁slightly	-5140
▁Sometimes	-5141
▁pleasures	-5142
Ch	-5143
▁Ro	-5144
ares	-5145
enes	-5146
▁Mag	-5147
▁pan	-5148
▁flat	-5149
▁pave	-5150
▁pipe	-5151
▁sank	-5152
▁skin	-5153
arrass	-5154
▁mercy	-5155
ulation	-5156
▁palace	-5157
▁paying	-5158
▁driving	-5159
▁gesture	-5160
▁contempt	-5161
▁instance	-5162
▁silently	-5163
▁struggle	-5164
▁abandoned	-5165
▁proceeded	-5166
!"	-5167
!_	-5168
ih	-5169
Bec	-5170
With	-5171
rien	-5172
▁qui	-5173
acher	-5174
iance	-5175
ishes	-5176
▁Thou	-5177
▁inev	-5178
ivered	-5179
▁weary	-5180
▁corpse	-5181
▁leaned	-5182
▁poetry	-5183
▁follows	-5184
▁refused	-5185
▁revenge	-5186
▁thither	-5187
▁Suddenly	-5188
▁declared	-5189
▁presents	-5190
▁connected	-5191
Ren	-5192
nal	-5193
pap	-5194
▁Mi	-5195
▁oh	-5196
▁Red	-5197
▁fer	-5198
▁hal	-5199
alous	-5200
igned	-5201
rived	-5202
umber	-5203
▁High	-5204
▁hell	-5205
▁nurse	-5206
▁rever	-5207
Because	-5208
▁thinks	-5209
▁figures	-5210
▁slaught	-5211
▁Countess	-5212
▁connection	-5213
▁principles	-5214
▁handkerchief	-5215
VE	-5216
Pro	-5217
amma	-5218
aunt	-5219
▁wet	-5220
iable	-5221
ology	-5222
▁mort	-5223
Renaud	-5224
▁ended	-5225
▁steel	-5226
ization	-5227
▁Austri	-5228
▁anywhere	-5229
▁comprehe	-5230
▁humanity	-5231
▁reproach	-5232
▁condemned	-5233
▁receiving	-5234
▁resolution	-5235
▁possibility	-5236
.’”	-5237
Mad	-5238
len	-5239
▁ty	-5240
kins	-5241
seen	-5242
zing	-5243
aries	-5244
▁Gard	-5245
▁Phil	-5246
▁lion	-5247
▁poem	-5248
licity	-5249
unning	-5250
▁Sperm	-5251
▁hills	-5252
▁abrupt	-5253
▁bodies	-5254
▁estate	-5255
▁plainly	-5256
▁Frenchman	-5257
▁agreeable	-5258
▁embarrass	-5259
▁assistance	-5260
▁nevertheless	-5261
8.	-5262
By	-5263
gl	-5264
isp	-5265
TION	-5266
ilst	-5267
▁pace	-5268
▁term	-5269
▁flung	-5270
▁illum	-5271
▁sport	-5272
▁assass	-5273
▁attrib	-5274
▁consid	-5275
▁Another	-5276
▁created	-5277
▁rolling	-5278
▁instruct	-5279
▁overwhel	-5280
▁doubtless	-5281
▁exception	-5282
▁execution	-5283
aeus	-5284
umes	-5285
agger	-5286
asket	-5287
ician	-5288
itate	-5289
átych	-5290
▁Pres	-5291
▁musk	-5292
asures	-5293
▁awful	-5294
▁block	-5295
▁hoped	-5296
▁Nestor	-5297
▁active	-5298
▁stared	-5299
▁ashamed	-5300
▁cavalry	-5301
▁chimney	-5302
▁diamond	-5303
▁foreign	-5304
▁vanished	-5305
▁interests	-5306
▁reflected	-5307
▁frequently	-5308
Of	-5309
bus	-5310
▁(_	-5311
ugén	-5312
▁PRO	-5313
▁shel	-5314
inging	-5315
ugénie	-5316
▁Italy	-5317
▁Penel	-5318
▁fleet	-5319
umbling	-5320
▁coward	-5321
▁extent	-5322
▁repeat	-5323
▁wheels	-5324
▁anguish	-5325
▁treated	-5326
▁bringing	-5327
▁coachman	-5328
▁generals	-5329
▁material	-5330
▁precious	-5331
wl	-5332
elt	-5333
eps	-5334
hic	-5335
mít	-5336
rief	-5337
▁Sim	-5338
▁jew	-5339
▁dazz	-5340
▁east	-5341
▁pall	-5342
▁vers	-5343
▁rocks	-5344
▁armies	-5345
▁arrive	-5346
▁betray	-5347
▁disord	-5348
▁redoub	-5349
▁blessed	-5350
▁glancing	-5351
▁addressing	-5352
▁apparently	-5353
fa	-5354
ayd	-5355
▁AN	-5356
ints	-5357
▁dil	-5358
▁lin	-5359
▁pot	-5360
▁woe	-5361
▁Look	-5362
▁sole	-5363
▁badly	-5364
▁cease	-5365
▁solid	-5366
▁firing	-5367
▁setting	-5368
▁weeping	-5369
▁younger	-5370
▁Alpátych	-5371
▁breathing	-5372
▁separated	-5373
▁remarkable	-5374
▁unconscious	-5375
Sh	-5376
hib	-5377
ieve	-5378
kháy	-5379
lebr	-5380
raced	-5381
▁nerv	-5382
▁tent	-5383
▁arise	-5384
▁signs	-5385
▁woods	-5386
▁Mikháy	-5387
▁hunger	-5388
▁manage	-5389
▁happens	-5390
▁willing	-5391
formation	-5392
▁striking	-5393
▁desperate	-5394
▁presently	-5395
loo	-5396
▁Tu	-5397
fall	-5398
well	-5399
▁Sir	-5400
▁bab	-5401
▁reb	-5402
aydée	-5403
▁elev	-5404
▁hamm	-5405
▁final	-5406
▁guide	-5407
▁waste	-5408
utation	-5409
▁belief	-5410
▁depend	-5411
▁strain	-5412
▁thread	-5413
▁uneasy	-5414
▁vision	-5415
▁curtain	-5416
▁lantern	-5417
▁wearing	-5418
▁attitude	-5419
▁breaking	-5420
▁commands	-5421
▁faithful	-5422
▁meantime	-5423
▁midnight	-5424
▁movements	-5425
▁Everything	-5426
▁conditions	-5427
0.	-5428
kin	-5429
▁Di	-5430
▁ec	-5431
arly	-5432
ibly	-5433
lier	-5434
omen	-5435
otte	-5436
▁...	-5437
▁Sat	-5438
▁nin	-5439
ental	-5440
loved	-5441
▁Mars	-5442
▁mood	-5443
▁shop	-5444
rienne	-5445
▁limbs	-5446
▁south	-5447
▁celebr	-5448
▁choice	-5449
▁colour	-5450
▁excess	-5451
▁Glaucon	-5452
▁Trojans	-5453
▁Bonaparte	-5454
▁exhausted	-5455
▁ignorance	-5456
▁previously	-5457
ads	-5458
rat	-5459
vol	-5460
chan	-5461
▁pil	-5462
alled	-5463
icing	-5464
▁June	-5465
▁deed	-5466
▁farm	-5467
▁meat	-5468
▁test	-5469
▁Marse	-5470
▁drank	-5471
▁flank	-5472
▁wrink	-5473
▁yards	-5474
itement	-5475
▁chiefs	-5476
▁rulers	-5477
▁stayed	-5478
▁Eugénie	-5479
▁Italian	-5480
▁chariot	-5481
▁baroness	-5482
▁building	-5483
▁continue	-5484
▁daylight	-5485
▁division	-5486
▁Mikháylovna	-5487
RAN	-5488
bye	-5489
his	-5490
rous	-5491
▁Pri	-5492
▁dig	-5493
▁ice	-5494
▁irr	-5495
▁shi	-5496
▁vex	-5497
▁Dmít	-5498
▁cord	-5499
▁mart	-5500
▁nodd	-5501
▁offe	-5502
▁prey	-5503
isible	-5504
▁eaten	-5505
▁feels	-5506
▁north	-5507
▁stuff	-5508
looking	-5509
▁purple	-5510
▁tyrant	-5511
▁worked	-5512
▁careful	-5513
▁horizon	-5514
▁managed	-5515
▁objects	-5516
▁formerly	-5517
▁harpoone	-5518
▁perceive	-5519
▁violence	-5520
▁Bourienne	-5521
▁qualities	-5522
▁conclusion	-5523
▁formidable	-5524
▁distinguish	-5525
▁inhabitants	-5526
▁magnificent	-5527
Mé	-5528
Did	-5529
dys	-5530
son	-5531
Look	-5532
icip	-5533
stem	-5534
▁aut	-5535
▁hol	-5536
▁shep	-5537
▁writ	-5538
▁angel	-5539
▁clock	-5540
▁crack	-5541
▁revol	-5542
▁bourge	-5543
▁failed	-5544
▁nation	-5545
▁praise	-5546
▁throne	-5547
▁council	-5548
▁fellows	-5549
▁mystery	-5550
▁usually	-5551
▁affected	-5552
▁upstairs	-5553
▁furniture	-5554
▁traveller	-5555
▁conviction	-5556
▁historians	-5557
3,	-5558
Re	-5559
ns	-5560
ache	-5561
opch	-5562
▁Cat	-5563
▁Des	-5564
▁Rev	-5565
▁Roy	-5566
▁Sep	-5567
▁wra	-5568
cians	-5569
oring	-5570
osure	-5571
▁Hans	-5572
▁keen	-5573
▁mach	-5574
▁text	-5575
▁wave	-5576
▁fires	-5577
▁renew	-5578
▁solic	-5579
▁stiff	-5580
▁swear	-5581
▁uncom	-5582
▁August	-5583
▁exists	-5584
▁footst	-5585
▁nodded	-5586
▁closely	-5587
▁consent	-5588
▁contrad	-5589
▁remarks	-5590
▁comrades	-5591
▁constant	-5592
▁excitement	-5593
▁proportion	-5594
▁]	-5595
ECT	-5596
cast	-5597
gent	-5598
omin	-5599
udes	-5600
▁Abb	-5601
▁VII	-5602
▁ard	-5603
▁gif	-5604
▁liv	-5605
onder	-5606
ulate	-5607
▁Mich	-5608
▁anch	-5609
▁knee	-5610
▁quit	-5611
▁veil	-5612
▁agony	-5613
▁avail	-5614
▁beard	-5615
▁manif	-5616
▁refer	-5617
▁shone	-5618
▁slave	-5619
▁branch	-5620
▁prepar	-5621
▁sooner	-5622
▁wounds	-5623
▁alarmed	-5624
▁dancing	-5625
▁devoted	-5626
▁dragged	-5627
▁forever	-5628
▁related	-5629
▁Rostopch	-5630
▁Waterloo	-5631
▁attacked	-5632
▁included	-5633
▁reaching	-5634
▁announced	-5635
▁consequence	-5636
yn	-5637
off	-5638
íts	-5639
▁Mo	-5640
eric	-5641
▁Vir	-5642
▁spl	-5643
ember	-5644
▁toil	-5645
▁bench	-5646
▁blows	-5647
▁democ	-5648
▁grant	-5649
▁stout	-5650
▁Guards	-5651
▁Seward	-5652
▁begins	-5653
▁causes	-5654
▁fought	-5655
▁utmost	-5656
▁fearful	-5657
▁neglect	-5658
▁nonsense	-5659
▁weakness	-5660
▁guardians	-5661
▁preceding	-5662
▁universal	-5663
▁circumstance	-5664
Un	-5665
Tis	-5666
▁El	-5667
vell	-5668
veni	-5669
Méran	-5670
aping	-5671
cause	-5672
rigny	-5673
▁abst	-5674
▁drag	-5675
▁subl	-5676
▁vale	-5677
liance	-5678
rences	-5679
▁Champ	-5680
▁artic	-5681
▁fruit	-5682
▁poets	-5683
▁trick	-5684
▁winds	-5685
▁absent	-5686
▁magist	-5687
▁comment	-5688
▁visitor	-5689
▁volunte	-5690
Certainly	-5691
▁goodness	-5692
▁heavenly	-5693
▁inclined	-5694
▁numerous	-5695
▁consciousness	-5696
An	-5697
ipp	-5698
zes	-5699
lict	-5700
sars	-5701
▁Men	-5702
▁City	-5703
▁Most	-5704
▁Nant	-5705
▁obsc	-5706
riages	-5707
tember	-5708
urance	-5709
▁Witch	-5710
▁armed	-5711
▁desir	-5712
▁needs	-5713
Avrigny	-5714
▁corrid	-5715
▁finish	-5716
▁helped	-5717
▁hungry	-5718
▁taught	-5719
▁abandon	-5720
▁dignity	-5721
▁galleys	-5722
▁wishing	-5723
▁deceived	-5724
▁subjects	-5725
▁September	-5726
▁appointed	-5727
▁expecting	-5728
▁Rostopchín	-5729
▁collection	-5730
▁description	-5731
,)	-5732
IET	-5733
alf	-5734
amm	-5735
asse	-5736
ollo	-5737
racy	-5738
ulse	-5739
▁JUL	-5740
▁Tin	-5741
▁bas	-5742
▁ric	-5743
▁East	-5744
▁sear	-5745
▁sell	-5746
▁Which	-5747
▁bears	-5748
▁chain	-5749
▁drops	-5750
▁fatig	-5751
▁fired	-5752
▁guest	-5753
▁burned	-5754
▁defend	-5755
▁locked	-5756
▁shouts	-5757
▁hostile	-5758
▁portion	-5759
▁shaking	-5760
▁absorbed	-5761
▁recalled	-5762
▁precisely	-5763
▁Marseilles	-5764
oe	-5765
ox	-5766
sc	-5767
pes	-5768
▁Bl	-5769
▁som	-5770
▁unm	-5771
chair	-5772
▁adop	-5773
▁cool	-5774
▁ours	-5775
▁rese	-5776
▁sofa	-5777
▁whit	-5778
levard	-5779
▁White	-5780
▁awake	-5781
▁sheet	-5782
▁sperm	-5783
▁trace	-5784
▁tramp	-5785
▁JULIET	-5786
▁halted	-5787
▁hatred	-5788
▁insult	-5789
▁intent	-5790
▁larger	-5791
▁posted	-5792
▁throng	-5793
▁destiny	-5794
▁showing	-5795
▁moreover	-5796
▁religion	-5797
▁throwing	-5798
▁bourgeois	-5799
▁immediate	-5800
ses	-5801
▁od	-5802
izzy	-5803
thac	-5804
▁mild	-5805
▁oath	-5806
▁seam	-5807
▁tore	-5808
leness	-5809
▁About	-5810
▁drown	-5811
▁linen	-5812
▁notes	-5813
▁Haydée	-5814
▁Island	-5815
▁consol	-5816
▁mechan	-5817
▁beloved	-5818
▁corrupt	-5819
▁quarters	-5820
▁Nantucket	-5821
▁invisible	-5822
▁pronounced	-5823
▁Má	-5824
▁iv	-5825
poch	-5826
▁HIS	-5827
▁etc	-5828
▁hut	-5829
istic	-5830
pleas	-5831
uries	-5832
▁ends	-5833
▁rang	-5834
▁risk	-5835
atched	-5836
▁clasp	-5837
▁flash	-5838
▁maids	-5839
▁porch	-5840
▁trial	-5841
▁attain	-5842
▁loudly	-5843
▁retire	-5844
▁amongst	-5845
▁foolish	-5846
▁harmony	-5847
▁kingdom	-5848
▁nervous	-5849
▁plunged	-5850
▁steward	-5851
▁utterly	-5852
▁glorious	-5853
▁gratitude	-5854
▁intellectual	-5855
.—	-5856
pro	-5857
urd	-5858
Take	-5859
irty	-5860
ived	-5861
laus	-5862
rive	-5863
▁tal	-5864
▁wag	-5865
agues	-5866
atory	-5867
rious	-5868
▁Sund	-5869
▁size	-5870
▁Baron	-5871
▁Madam	-5872
▁vehic	-5873
itating	-5874
▁banker	-5875
▁softly	-5876
▁disappo	-5877
▁disturb	-5878
▁mission	-5879
▁crossing	-5880
▁concluded	-5881
▁principal	-5882
sp	-5883
sed	-5884
▁Li	-5885
!...	-5886
wood	-5887
▁Mer	-5888
▁Ven	-5889
▁bag	-5890
▁env	-5891
▁fed	-5892
arted	-5893
inate	-5894
▁gown	-5895
▁grim	-5896
▁oars	-5897
▁sous	-5898
▁trif	-5899
hether	-5900
▁Ithac	-5901
▁brief	-5902
▁chase	-5903
▁hunts	-5904
▁stage	-5905
▁stoop	-5906
▁teach	-5907
▁Apollo	-5908
▁battal	-5909
▁duties	-5910
▁incess	-5911
▁indign	-5912
▁powder	-5913
▁Majesty	-5914
▁pierced	-5915
▁rushing	-5916
▁agitated	-5917
▁fastened	-5918
▁infantry	-5919
▁pavement	-5920
▁advancing	-5921
▁performed	-5922
▁suggested	-5923
▁distribute	-5924
▁considering	-5925
▁17	-5926
Will	-5927
llen	-5928
uits	-5929
▁blo	-5930
▁tot	-5931
eries	-5932
eyore	-5933
▁Bour	-5934
▁Soon	-5935
▁VIII	-5936
▁flag	-5937
▁heed	-5938
▁jave	-5939
istrib	-5940
versed	-5941
▁urged	-5942
ounding	-5943
▁Americ	-5944
▁bought	-5945
▁jealous	-5946
▁radiant	-5947
▁replace	-5948
▁unpleas	-5949
▁governor	-5950
▁hastened	-5951
▁visitors	-5952
▁admiration	-5953
pin	-5954
rin	-5955
vet	-5956
five	-5957
rene	-5958
énsk	-5959
inity	-5960
▁cher	-5961
▁hang	-5962
▁proc	-5963
▁agent	-5964
▁angle	-5965
▁fanci	-5966
▁queer	-5967
▁feeble	-5968
▁leader	-5969
▁nobody	-5970
▁signal	-5971
▁system	-5972
▁travel	-5973
▁wouldn	-5974
▁bedroom	-5975
▁conquer	-5976
▁cunning	-5977
▁current	-5978
▁license	-5979
▁obscure	-5980
▁terrified	-5981
▁introduced	-5982
▁distributed	-5983
God	-5984
ael	-5985
uns	-5986
éev	-5987
Alas	-5988
liad	-5989
ágin	-5990
▁Him	-5991
▁tap	-5992
ieved	-5993
▁Many	-5994
▁Till	-5995
▁dise	-5996
▁narr	-5997
▁wasn	-5998
▁epoch	-5999
▁loves	-6000
▁spend	-6001
▁brains	-6002
▁pursue	-6003
▁rested	-6004
▁heavily	-6005
▁hussars	-6006
▁popular	-6007
▁prayers	-6008
▁quality	-6009
▁galloped	-6010
▁sacrific	-6011
EM	-6012
IR	-6013
ai	-6014
—_	-6015
bly	-6016
rya	-6017
emed	-6018
when	-6019
▁rat	-6020
brary	-6021
otted	-6022
▁disd	-6023
▁west	-6024
▁XVIII	-6025
▁awoke	-6026
▁outer	-6027
▁shows	-6028
▁deadly	-6029
▁reward	-6030
▁squire	-6031
▁Colonel	-6032
▁attract	-6033
▁element	-6034
▁fancied	-6035
▁forgive	-6036
▁patient	-6037
▁problem	-6038
▁quarrel	-6039
▁distinctly	-6040
▁sufficiently	-6041
HI	-6042
abe	-6043
har	-6044
inc	-6045
oked	-6046
▁Dan	-6047
▁WAR	-6048
▁bay	-6049
▁isn	-6050
▁non	-6051
blanc	-6052
enter	-6053
othed	-6054
overy	-6055
▁rosy	-6056
▁tied	-6057
eptune	-6058
▁apply	-6059
▁bands	-6060
▁devel	-6061
▁murde	-6062
▁shrie	-6063
▁Eeyore	-6064
▁dining	-6065
▁forbid	-6066
▁respon	-6067
▁million	-6068
▁whaling	-6069
▁delicate	-6070
▁drinking	-6071
▁friendly	-6072
▁inspector	-6073
▁slightest	-6074
▁interested	-6075
▁thoroughly	-6076
▁accomplished	-6077
▁consideration	-6078
▁ST	-6079
▁ep	-6080
ancy	-6081
ques	-6082
vest	-6083
▁Ara	-6084
▁cro	-6085
adise	-6086
▁doct	-6087
▁prud	-6088
▁sang	-6089
▁sust	-6090
▁corps	-6091
▁finds	-6092
▁Balash	-6093
▁loving	-6094
▁poured	-6095
▁stroke	-6096
▁writer	-6097
piration	-6098
▁divided	-6099
▁precaut	-6100
▁pursuit	-6101
▁recomme	-6102
▁staring	-6103
▁suggest	-6104
▁judgment	-6105
▁probable	-6106
▁troubled	-6107
[1	-6108
[2	-6109
ili	-6110
tic	-6111
▁Mu	-6112
lers	-6113
urre	-6114
▁183	-6115
▁Pal	-6116
▁cas	-6117
apsed	-6118
kward	-6119
▁Cont	-6120
▁Prov	-6121
▁flow	-6122
▁ride	-6123
ential	-6124
mother	-6125
▁Faria	-6126
▁ashes	-6127
▁irres	-6128
▁sadly	-6129
▁trous	-6130
▁couldn	-6131
▁prodig	-6132
▁relief	-6133
▁sighed	-6134
lessness	-6135
sibility	-6136
▁Leblanc	-6137
▁anybody	-6138
▁Penelope	-6139
▁disgrace	-6140
▁imagined	-6141
▁murderer	-6142
▁pictures	-6143
▁resolute	-6144
▁sympathy	-6145
▁household	-6146
▁intervals	-6147
AB	-6148
box	-6149
don	-6150
▁Ts	-6151
anth	-6152
odin	-6153
▁Luc	-6154
▁hyp	-6155
▁lat	-6156
▁butt	-6157
▁eleg	-6158
▁mead	-6159
▁unus	-6160
▁Roman	-6161
▁boast	-6162
▁brown	-6163
▁disch	-6164
▁flock	-6165
▁obedi	-6166
▁rules	-6167
▁spout	-6168
▁valet	-6169
Project	-6170
ourable	-6171
▁Ithaca	-6172
▁partly	-6173
▁season	-6174
▁select	-6175
▁source	-6176
▁strict	-6177
▁whilst	-6178
▁Neptune	-6179
▁invited	-6180
▁slipped	-6181
▁stories	-6182
▁contrast	-6183
▁grateful	-6184
▁separate	-6185
▁Christian	-6186
▁profession	-6187
_;	-6188
ded	-6189
gil	-6190
ymn	-6191
▁IX	-6192
etto	-6193
mend	-6194
▁odd	-6195
eless	-6196
ially	-6197
laced	-6198
▁Dick	-6199
▁bows	-6200
▁impr	-6201
▁Márya	-6202
▁Three	-6203
▁Would	-6204
▁borne	-6205
▁cloth	-6206
▁dozen	-6207
▁marsh	-6208
▁pains	-6209
▁purse	-6210
▁seize	-6211
▁vener	-6212
intment	-6213
natural	-6214
▁begged	-6215
▁daring	-6216
▁handle	-6217
▁invest	-6218
▁lights	-6219
▁nights	-6220
▁parted	-6221
▁angrily	-6222
▁awkward	-6223
▁majesty	-6224
▁corridor	-6225
▁preserve	-6226
▁indicated	-6227
rs	-6228
BER	-6229
aon	-6230
▁FOR	-6231
▁buy	-6232
odinó	-6233
▁ages	-6234
▁bade	-6235
▁brig	-6236
▁buck	-6237
▁memb	-6238
▁page	-6239
▁spec	-6240
▁tide	-6241
master	-6242
▁cheek	-6243
▁image	-6244
▁instr	-6245
▁landl	-6246
▁medic	-6247
▁sixty	-6248
▁desert	-6249
▁loaded	-6250
▁consult	-6251
▁convuls	-6252
▁honours	-6253
▁torment	-6254
▁virtues	-6255
▁creation	-6256
▁inferior	-6257
▁acknowled	-6258
tr	-6259
ESS	-6260
ITY	-6261
bar	-6262
hor	-6263
ands	-6264
ovel	-6265
▁CAP	-6266
▁Emp	-6267
▁Tot	-6268
▁lux	-6269
ernal	-6270
ulted	-6271
▁Span	-6272
▁gend	-6273
▁milk	-6274
▁Spart	-6275
▁naked	-6276
▁organ	-6277
▁plate	-6278
▁title	-6279
▁theory	-6280
▁weapon	-6281
▁crowded	-6282
▁knocked	-6283
▁library	-6284
▁natures	-6285
▁disturbed	-6286
▁strangers	-6287
▁thousands	-6288
▁engagement	-6289
▁philosophers	-6290
cto	-6291
rog	-6292
▁ox	-6293
alls	-6294
bits	-6295
leus	-6296
utch	-6297
▁Arg	-6298
▁Cle	-6299
▁Ter	-6300
▁cel	-6301
▁ded	-6302
▁vir	-6303
after	-6304
enger	-6305
▁Abbé	-6306
▁base	-6307
▁flee	-6308
▁pred	-6309
▁vall	-6310
ctober	-6311
▁Flask	-6312
▁Since	-6313
▁based	-6314
▁disci	-6315
▁error	-6316
▁harsh	-6317
▁inner	-6318
▁labor	-6319
▁peril	-6320
▁shake	-6321
▁swept	-6322
▁whirl	-6323
▁courty	-6324
▁dishon	-6325
▁eldest	-6326
▁folded	-6327
▁propri	-6328
▁funeral	-6329
▁Borodinó	-6330
▁practice	-6331
▁proposed	-6332
▁adventure	-6333
▁attracted	-6334
▁slaughter	-6335
▁displaying	-6336
▁glittering	-6337
▁disposition	-6338
▁involuntarily	-6339
hern	-6340
hole	-6341
yard	-6342
▁dun	-6343
emnon	-6344
ulars	-6345
▁Take	-6346
▁anti	-6347
▁caut	-6348
▁chin	-6349
▁jack	-6350
▁soil	-6351
▁sunk	-6352
▁trap	-6353
Father	-6354
isting	-6355
rievna	-6356
▁ahead	-6357
▁honey	-6358
▁mayor	-6359
▁tells	-6360
▁basket	-6361
▁detach	-6362
▁firmly	-6363
▁prompt	-6364
▁shades	-6365
attering	-6366
▁beating	-6367
▁sorrows	-6368
▁recovered	-6369
▁Dmítrievna	-6370
cip	-6371
ped	-6372
itty	-6373
osal	-6374
reek	-6375
▁Alc	-6376
▁Any	-6377
▁Old	-6378
▁fac	-6379
Never	-6380
amped	-6381
anges	-6382
irect	-6383
▁Vamp	-6384
▁aged	-6385
estial	-6386
ilight	-6387
▁Priam	-6388
▁price	-6389
▁tower	-6390
amation	-6391
amemnon	-6392
enelaus	-6393
fulness	-6394
▁breeze	-6395
▁extrem	-6396
▁ruined	-6397
▁smooth	-6398
▁deliber	-6399
▁painted	-6400
▁sincere	-6401
▁animated	-6402
▁compared	-6403
▁editions	-6404
▁overcome	-6405
▁starting	-6406
▁agitation	-6407
▁furnished	-6408
▁preserved	-6409
▁Revolution	-6410
▁observation	-6411
▁requirements	-6412
UM	-6413
arf	-6414
▁Han	-6415
▁Kar	-6416
▁gla	-6417
▁rom	-6418
▁unb	-6419
erted	-6420
▁Cors	-6421
▁chap	-6422
▁encl	-6423
▁halt	-6424
▁nois	-6425
▁prow	-6426
▁puzz	-6427
▁temp	-6428
olénsk	-6429
▁North	-6430
▁deeds	-6431
▁kinds	-6432
▁quant	-6433
▁tight	-6434
▁views	-6435
▁energy	-6436
▁riding	-6437
▁October	-6438
▁nearest	-6439
▁reports	-6440
▁armchair	-6441
▁arrested	-6442
▁conflict	-6443
▁monsieur	-6444
▁obtained	-6445
▁restored	-6446
▁carriages	-6447
▁courtyard	-6448
▁scattered	-6449
.1	-6450
UN	-6451
pet	-6452
sec	-6453
ENCE	-6454
ools	-6455
▁CON	-6456
▁dip	-6457
▁owe	-6458
▁row	-6459
ashes	-6460
inent	-6461
▁fain	-6462
▁vice	-6463
cribed	-6464
escrib	-6465
ferent	-6466
▁Thras	-6467
▁folly	-6468
▁gifts	-6469
▁stead	-6470
raction	-6471
▁Little	-6472
▁accent	-6473
▁disple	-6474
▁highly	-6475
▁senses	-6476
▁Michael	-6477
▁sublime	-6478
▁visited	-6479
▁welcome	-6480
▁whereas	-6481
▁Smolénsk	-6482
▁cloister	-6483
▁intimate	-6484
▁indescrib	-6485
▁Englishman	-6486
occ	-6487
uan	-6488
uke	-6489
▁Er	-6490
more	-6491
▁Cor	-6492
▁hit	-6493
Thank	-6494
atisf	-6495
lotte	-6496
orney	-6497
▁mant	-6498
▁sche	-6499
orable	-6500
verted	-6501
▁Helen	-6502
▁South	-6503
▁amuse	-6504
▁sails	-6505
▁thine	-6506
▁vault	-6507
Nothing	-6508
ulating	-6509
▁illust	-6510
▁lament	-6511
▁resign	-6512
▁sailed	-6513
▁applied	-6514
▁members	-6515
▁obvious	-6516
▁supreme	-6517
▁acquired	-6518
▁prospect	-6519
▁solitary	-6520
▁trousers	-6521
▁completed	-6522
▁throughout	-6523
”—	-6524
Can	-6525
oni	-6526
▁ic	-6527
Just	-6528
ULET	-6529
itor	-6530
text	-6531
▁Duc	-6532
▁Ren	-6533
▁Sch	-6534
▁mas	-6535
▁alas	-6536
▁nurs	-6537
▁unin	-6538
Indeed	-6539
▁carts	-6540
▁recon	-6541
▁scrut	-6542
▁incred	-6543
▁lovers	-6544
▁sombre	-6545
▁CAPULET	-6546
▁counter	-6547
▁sending	-6548
▁smoking	-6549
▁stretch	-6550
▁tremble	-6551
▁coursers	-6552
▁executed	-6553
▁independ	-6554
▁summoned	-6555
▁Agamemnon	-6556
▁amazement	-6557
▁seriously	-6558
▁descending	-6559
▁indifferent	-6560
▁particulars	-6561
▁indifference	-6562
3]	-6563
LA	-6564
eng	-6565
erl	-6566
kov	-6567
och	-6568
phe	-6569
aved	-6570
ford	-6571
iasm	-6572
shop	-6573
urst	-6574
▁180	-6575
▁Bel	-6576
▁vac	-6577
irmed	-6578
stead	-6579
▁Poly	-6580
▁bond	-6581
▁ecst	-6582
▁fest	-6583
▁roar	-6584
00,000	-6585
rained	-6586
rehens	-6587
verend	-6588
▁alike	-6589
▁fifth	-6590
▁intim	-6591
▁phant	-6592
▁steep	-6593
▁vivid	-6594
▁admire	-6595
▁anchor	-6596
▁armour	-6597
▁marble	-6598
▁notary	-6599
▁Neither	-6600
▁chiefly	-6601
▁disdain	-6602
▁emerged	-6603
▁readily	-6604
▁suspect	-6605
▁Menelaus	-6606
▁attended	-6607
▁awaiting	-6608
▁describe	-6609
▁mournful	-6610
▁collected	-6611
▁prevented	-6612
▁providing	-6613
▁strangely	-6614
▁magistrate	-6615
▁reasonable	-6616
▁unpleasant	-6617
▁established	-6618
sing	-6619
▁Pha	-6620
▁Pre	-6621
▁Ste	-6622
▁gig	-6623
ilson	-6624
oress	-6625
ourse	-6626
piece	-6627
▁unre	-6628
▁Ilion	-6629
▁clerk	-6630
▁leads	-6631
▁mixed	-6632
▁ruler	-6633
inction	-6634
▁commit	-6635
▁detail	-6636
▁holder	-6637
▁losing	-6638
▁masses	-6639
▁settle	-6640
▁unlike	-6641
▁Thrasym	-6642
▁Without	-6643
▁bending	-6644
▁dearest	-6645
▁leagues	-6646
▁sounded	-6647
▁abruptly	-6648
▁bestowed	-6649
▁hitherto	-6650
▁reported	-6651
▁shepherd	-6652
▁twilight	-6653
▁consisted	-6654
▁extremely	-6655
▁hurriedly	-6656
▁shuddered	-6657
▁constantly	-6658
▁occasionally	-6659
▁recollection	-6660
5]	-6661
uv	-6662
See	-6663
col	-6664
gic	-6665
lla	-6666
tree	-6667
▁cla	-6668
▁fem	-6669
ilful	-6670
pring	-6671
▁Sher	-6672
▁lift	-6673
▁brand	-6674
▁heaps	-6675
▁sweep	-6676
▁Wilson	-6677
▁abroad	-6678
▁habits	-6679
▁hoarse	-6680
▁plenty	-6681
▁polite	-6682
▁shared	-6683
▁thresh	-6684
fortunes	-6685
▁amiable	-6686
▁breathe	-6687
▁copying	-6688
▁sentine	-6689
▁valiant	-6690
▁wanting	-6691
▁destined	-6692
▁disposed	-6693
▁district	-6694
▁politics	-6695
▁pressing	-6696
▁celestial	-6697
▁disappear	-6698
▁footsteps	-6699
▁violently	-6700
▁tenderness	-6701
ea	-6702
,—“	-6703
aks	-6704
edy	-6705
evi	-6706
inn	-6707
jud	-6708
ties	-6709
▁Bez	-6710
▁wip	-6711
ppino	-6712
▁aven	-6713
▁corn	-6714
▁webs	-6715
dyssey	-6716
uously	-6717
▁Black	-6718
▁brass	-6719
▁Sunday	-6720
▁absurd	-6721
▁altern	-6722
▁endure	-6723
▁series	-6724
▁status	-6725
▁anticip	-6726
▁concent	-6727
▁cottage	-6728
▁crushed	-6729
▁Gardiner	-6730
▁Sherlock	-6731
▁definite	-6732
▁opinions	-6733
▁elsewhere	-6734
▁inquiries	-6735
▁resembled	-6736
▁traversed	-6737
▁Providence	-6738
▁misfortunes	-6739
4]	-6740
6]	-6741
EL	-6742
awn	-6743
gue	-6744
oft	-6745
opy	-6746
osp	-6747
erer	-6748
four	-6749
shot	-6750
your	-6751
▁***	-6752
▁ner	-6753
▁sob	-6754
ATION	-6755
▁Berg	-6756
▁July	-6757
▁bord	-6758
igneur	-6759
ograph	-6760
▁Royal	-6761
▁balls	-6762
▁doesn	-6763
▁polic	-6764
▁wives	-6765
▁labour	-6766
▁perish	-6767
▁complex	-6768
▁cutting	-6769
▁embrace	-6770
▁returns	-6771
▁disorder	-6772
▁realized	-6773
▁encounter	-6774
▁meanwhile	-6775
▁threshold	-6776
▁historical	-6777
bon	-6778
unn	-6779
▁10	-6780
▁ug	-6781
▁fox	-6782
▁jaw	-6783
▁ske	-6784
▁tur	-6785
rides	-6786
viour	-6787
▁dram	-6788
▁jail	-6789
▁perf	-6790
▁rags	-6791
▁rout	-6792
▁wars	-6793
akened	-6794
erlitz	-6795
ington	-6796
strous	-6797
▁dimin	-6798
▁equip	-6799
▁haven	-6800
▁serge	-6801
▁toils	-6802
▁repose	-6803
▁thence	-6804
▁Peppino	-6805
▁audible	-6806
▁contact	-6807
▁harness	-6808
▁javelin	-6809
▁madness	-6810
▁replies	-6811
▁vessels	-6812
▁ascended	-6813
▁captured	-6814
▁confined	-6815
▁insisted	-6816
▁strongly	-6817
▁commanded	-6818
▁discovery	-6819
▁displayed	-6820
▁containing	-6821
▁delightful	-6822
▁punishment	-6823
▁encountered	-6824
▁represented	-6825
7]	-6826
8]	-6827
Per	-6828
rah	-6829
rois	-6830
wind	-6831
▁Bab	-6832
abeuf	-6833
bbing	-6834
ítski	-6835
▁Toto	-6836
▁clos	-6837
▁club	-6838
▁obli	-6839
▁pole	-6840
▁rays	-6841
▁silk	-6842
▁subs	-6843
▁warn	-6844
ifying	-6845
ourage	-6846
▁March	-6847
▁alter	-6848
▁cares	-6849
▁chose	-6850
▁dirty	-6851
▁elbow	-6852
▁greet	-6853
▁inval	-6854
▁liter	-6855
▁theat	-6856
▁Gretel	-6857
▁burden	-6858
▁cellar	-6859
▁fairly	-6860
▁haught	-6861
▁patron	-6862
▁portra	-6863
▁prayed	-6864
▁refuge	-6865
▁steady	-6866
▁leather	-6867
▁lightly	-6868
▁resting	-6869
▁disclaim	-6870
▁evidence	-6871
▁guardian	-6872
▁transport	-6873
▁accordance	-6874
▁increasing	-6875
▁ridiculous	-6876
▁thoughtful	-6877
sip	-6878
▁AG	-6879
iven	-6880
otes	-6881
▁Jac	-6882
▁PAR	-6883
▁aby	-6884
▁wre	-6885
Greek	-6886
mercy	-6887
wenty	-6888
▁ange	-6889
▁cult	-6890
▁fees	-6891
▁pour	-6892
▁boxes	-6893
▁disag	-6894
▁incon	-6895
▁insol	-6896
▁slang	-6897
▁torch	-6898
▁bestow	-6899
▁calmly	-6900
▁coarse	-6901
▁incomp	-6902
▁retain	-6903
▁string	-6904
▁glimpse	-6905
▁inquire	-6906
▁martial	-6907
▁learning	-6908
▁passions	-6909
▁withdraw	-6910
▁Charlotte	-6911
▁Austerlitz	-6912
▁celebrated	-6913
▁compliance	-6914
▁enthusiasm	-6915
▁volunteers	-6916
▁x	-6917
ERC	-6918
yes	-6919
JECT	-6920
URSE	-6921
UTEN	-6922
ldom	-6923
loqu	-6924
some	-6925
▁Oly	-6926
enses	-6927
uming	-6928
▁Full	-6929
▁cave	-6930
▁deny	-6931
▁glow	-6932
▁irre	-6933
▁onto	-6934
▁tend	-6935
alming	-6936
▁NURSE	-6937
▁disgu	-6938
▁flour	-6939
▁steam	-6940
▁assume	-6941
▁attach	-6942
▁driver	-6943
▁eleven	-6944
▁lively	-6945
▁online	-6946
▁reject	-6947
▁united	-6948
▁William	-6949
▁flushed	-6950
▁letting	-6951
▁limited	-6952
▁departed	-6953
▁external	-6954
▁merchant	-6955
▁restrain	-6956
▁sensible	-6957
▁admirable	-6958
▁assembled	-6959
▁tolerably	-6960
▁individuals	-6961
▁instructions	-6962
5,	-6963
ii	-6964
wr	-6965
lac	-6966
▁Cy	-6967
izes	-6968
peak	-6969
▁Hen	-6970
▁fog	-6971
▁unl	-6972
▁wax	-6973
gthen	-6974
inese	-6975
ribly	-6976
▁doom	-6977
▁gore	-6978
▁hers	-6979
▁pile	-6980
▁rail	-6981
▁rubb	-6982
▁ruff	-6983
▁slee	-6984
▁wash	-6985
headed	-6986
manuel	-6987
▁Vampa	-6988
▁cerem	-6989
▁fiery	-6990
▁risen	-6991
▁stret	-6992
arnasse	-6993
ceiving	-6994
▁bewild	-6995
▁survey	-6996
seigneur	-6997
▁defence	-6998
▁parties	-6999
▁pockets	-7000
▁results	-7001
urrection	-7002
▁comparis	-7003
▁embraced	-7004
▁inspired	-7005
▁situated	-7006
rehensible	-7007
▁Pontmercy	-7008
▁contented	-7009
▁president	-7010
▁procureur	-7011
▁hesitation	-7012
▁Information	-7013
▁overwhelmed	-7014
cho	-7015
BERG	-7016
From	-7017
rels	-7018
▁bol	-7019
▁cyl	-7020
▁nav	-7021
ferre	-7022
heard	-7023
uable	-7024
▁Benn	-7025
▁Both	-7026
▁Kung	-7027
▁betr	-7028
▁clam	-7029
▁damp	-7030
▁trib	-7031
▁type	-7032
Listen	-7033
▁Combe	-7034
▁GUTEN	-7035
▁inher	-7036
▁People	-7037
▁collar	-7038
▁darted	-7039
▁dashed	-7040
▁permit	-7041
▁seldom	-7042
▁wolves	-7043
▁Chinese	-7044
▁PROJECT	-7045
▁battery	-7046
▁comrade	-7047
▁feather	-7048
▁machine	-7049
▁recover	-7050
▁variety	-7051
▁whither	-7052
▁wrapped	-7053
▁families	-7054
▁gigantic	-7055
▁landlord	-7056
▁persuade	-7057
▁quantity	-7058
▁tranquil	-7059
▁GUTENBERG	-7060
▁childhood	-7061
▁compelled	-7062
▁substance	-7063
▁suspicion	-7064
▁provisions	-7065
▁reputation	-7066
▁Thrasymachus	-7067
▁civilization	-7068
OS	-7069
RA	-7070
—‘	-7071
HAT	-7072
any	-7073
why	-7074
▁11	-7075
▁ON	-7076
▁SE	-7077
mber	-7078
reci	-7079
▁ANY	-7080
▁vap	-7081
bourn	-7082
eenth	-7083
eling	-7084
▁Sign	-7085
▁bend	-7086
▁chem	-7087
▁cock	-7088
▁diff	-7089
▁doll	-7090
▁runs	-7091
▁ugly	-7092
everal	-7093
itudes	-7094
▁Among	-7095
▁Grant	-7096
▁Montp	-7097
▁Peter	-7098
▁Right	-7099
▁ample	-7100
▁annoy	-7101
▁climb	-7102
▁depos	-7103
ciences	-7104
▁Mabeuf	-7105
▁WARRAN	-7106
▁comput	-7107
▁danced	-7108
▁format	-7109
▁humble	-7110
▁mirror	-7111
▁musket	-7112
▁obeyed	-7113
▁passes	-7114
▁record	-7115
▁signed	-7116
▁speaks	-7117
▁Atrides	-7118
▁unusual	-7119
▁website	-7120
▁breathed	-7121
▁devotion	-7122
▁medicine	-7123
▁revealed	-7124
▁warriors	-7125
▁Godalming	-7126
▁Longbourn	-7127
▁hesitated	-7128
▁monstrous	-7129
▁multitude	-7130
▁Combeferre	-7131
▁comfortable	-7132
▁Montparnasse	-7133
io	-7134
zh	-7135
lom	-7136
▁Iv	-7137
grat	-7138
lain	-7139
▁Bet	-7140
▁War	-7141
▁ine	-7142
▁net	-7143
▁san	-7144
pends	-7145
▁boys	-7146
▁brid	-7147
▁gymn	-7148
▁jest	-7149
▁puff	-7150
▁rapt	-7151
▁whip	-7152
▁woke	-7153
ounted	-7154
▁Baker	-7155
▁craft	-7156
▁ingen	-7157
▁store	-7158
▁stuck	-7159
utenant	-7160
▁hussar	-7161
▁inevit	-7162
▁remove	-7163
▁supply	-7164
ceptible	-7165
standing	-7166
▁cleared	-7167
▁seconds	-7168
▁criminal	-7169
▁gracious	-7170
▁interior	-7171
▁replaced	-7172
▁solitude	-7173
▁squadron	-7174
▁troubles	-7175
▁establish	-7176
▁fortunate	-7177
▁messenger	-7178
▁moonlight	-7179
▁intelligent	-7180
see	-7181
▁Py	-7182
icks	-7183
lest	-7184
▁Jun	-7185
▁aug	-7186
▁orn	-7187
▁woo	-7188
icken	-7189
uince	-7190
unter	-7191
▁Bear	-7192
▁baby	-7193
▁este	-7194
▁soot	-7195
▁stol	-7196
ension	-7197
▁Grand	-7198
▁aloft	-7199
▁apple	-7200
▁blank	-7201
▁merit	-7202
▁mouse	-7203
▁suite	-7204
▁bloody	-7205
▁cities	-7206
▁deeper	-7207
▁joyful	-7208
▁notion	-7209
▁reappe	-7210
▁safely	-7211
▁conject	-7212
▁fatigue	-7213
▁harpoon	-7214
▁illness	-7215
▁somehow	-7216
▁species	-7217
▁Cossacks	-7218
▁floating	-7219
▁offering	-7220
▁recently	-7221
▁ventured	-7222
▁boulevard	-7223
▁examining	-7224
▁preparing	-7225
▁sentiment	-7226
▁performing	-7227
▁spectacles	-7228
▁acknowledge	-7229
▁reflections	-7230
▁significance	-7231
ét	-7232
aux	-7233
hum	-7234
ums	-7235
éra	-7236
outs	-7237
quet	-7238
tell	-7239
upon	-7240
▁Jim	-7241
▁fil	-7242
▁ink	-7243
▁spy	-7244
arged	-7245
liest	-7246
pinay	-7247
stone	-7248
▁MERC	-7249
▁Mond	-7250
▁gets	-7251
▁noon	-7252
▁resc	-7253
▁salt	-7254
ground	-7255
ighted	-7256
soever	-7257
uincey	-7258
▁Jonah	-7259
▁Whose	-7260
▁crest	-7261
▁giant	-7262
▁ashore	-7263
▁brazen	-7264
▁brings	-7265
▁mathem	-7266
▁unwill	-7267
▁yonder	-7268
▁intense	-7269
▁lowered	-7270
▁missing	-7271
▁printed	-7272
▁receipt	-7273
▁restore	-7274
▁complain	-7275
▁decision	-7276
▁elements	-7277
▁relative	-7278
▁tranquill	-7279
▁waistcoat	-7280
▁commission	-7281
▁compassion	-7282
▁directions	-7283
▁attentively	-7284
0]	-7285
1]	-7286
2]	-7287
▁-	-7288
isk	-7289
tes	-7290
uet	-7291
▁ga	-7292
▁—_	-7293
aise	-7294
alog	-7295
plex	-7296
vity	-7297
▁hed	-7298
▁pear	-7299
▁stom	-7300
aptist	-7301
▁Arist	-7302
▁Iliad	-7303
▁Lizzy	-7304
▁couch	-7305
▁frost	-7306
▁incap	-7307
▁marks	-7308
▁owing	-7309
▁actual	-7310
▁bodily	-7311
▁crimes	-7312
▁harmon	-7313
▁hiding	-7314
▁member	-7315
▁smiles	-7316
▁specul	-7317
▁tailor	-7318
▁traces	-7319
ulations	-7320
▁Barrois	-7321
▁control	-7322
▁costume	-7323
▁derived	-7324
▁despite	-7325
▁earlier	-7326
▁killing	-7327
▁mothers	-7328
▁refrain	-7329
▁reverie	-7330
▁swiftly	-7331
▁somebody	-7332
▁wherever	-7333
▁essential	-7334
▁fortnight	-7335
▁obscurity	-7336
▁sensation	-7337
oph	-7338
ste	-7339
back	-7340
empt	-7341
mind	-7342
odes	-7343
rons	-7344
uite	-7345
▁Eum	-7346
▁Far	-7347
▁Owl	-7348
▁gri	-7349
▁ray	-7350
break	-7351
ersed	-7352
guard	-7353
▁craw	-7354
▁foes	-7355
▁hind	-7356
▁rent	-7357
▁tact	-7358
ranean	-7359
▁color	-7360
▁disin	-7361
▁ivory	-7362
▁limit	-7363
▁unity	-7364
▁beaten	-7365
▁chairs	-7366
▁diplom	-7367
▁exting	-7368
▁lately	-7369
▁tables	-7370
opyright	-7371
▁Baptist	-7372
▁barrier	-7373
▁belongs	-7374
▁ceiling	-7375
▁changes	-7376
▁degrees	-7377
▁dismiss	-7378
▁grasped	-7379
▁guessed	-7380
▁newspap	-7381
▁panting	-7382
▁perplex	-7383
▁prolong	-7384
▁sinking	-7385
▁Emmanuel	-7386
▁changing	-7387
▁headlong	-7388
▁marrying	-7389
▁reverend	-7390
▁construct	-7391
▁impatient	-7392
▁uncertain	-7393
▁additional	-7394
▁comparison	-7395
▁discussion	-7396
▁exceedingly	-7397
;”	-7398
HT	-7399
Mr	-7400
His	-7401
rim	-7402
rit	-7403
íkh	-7404
Dear	-7405
aces	-7406
anga	-7407
emet	-7408
have	-7409
▁Mur	-7410
▁apt	-7411
▁ton	-7412
▁vel	-7413
▁vul	-7414
atson	-7415
iring	-7416
olded	-7417
íkhon	-7418
▁Alas	-7419
▁bath	-7420
▁blew	-7421
▁gift	-7422
▁ling	-7423
▁peop	-7424
▁trip	-7425
angled	-7426
resses	-7427
▁Olymp	-7428
▁lands	-7429
▁links	-7430
▁reass	-7431
▁resol	-7432
▁track	-7433
▁veins	-7434
hearted	-7435
ressing	-7436
▁charms	-7437
▁insist	-7438
▁interm	-7439
▁lasted	-7440
▁waking	-7441
ositions	-7442
▁Because	-7443
▁Martian	-7444
▁Several	-7445
▁Spanish	-7446
▁congrat	-7447
▁corners	-7448
▁demands	-7449
▁haughty	-7450
▁shelter	-7451
▁stomach	-7452
▁tempest	-7453
▁upright	-7454
▁wealthy	-7455
▁announce	-7456
▁deprived	-7457
▁exercise	-7458
▁incident	-7459
▁likewise	-7460
▁sinister	-7461
▁wondering	-7462
▁sufferings	-7463
▁illuminated	-7464
▁translation	-7465
▁indescribable	-7466
OW	-7467
ILL	-7468
asm	-7469
▁(1	-7470
▁Ho	-7471
Tell	-7472
arts	-7473
even	-7474
gest	-7475
pass	-7476
rust	-7477
▁DIS	-7478
▁Gen	-7479
▁ped	-7480
dides	-7481
forth	-7482
oking	-7483
uding	-7484
verty	-7485
▁Bild	-7486
▁Pall	-7487
▁bark	-7488
▁echo	-7489
▁eyeb	-7490
▁load	-7491
▁lone	-7492
▁vest	-7493
ensity	-7494
ponine	-7495
usions	-7496
worthy	-7497
▁Kanga	-7498
▁appet	-7499
▁dried	-7500
▁serfs	-7501
▁Tíkhon	-7502
▁Virgil	-7503
▁Watson	-7504
▁horrid	-7505
▁inward	-7506
▁reckon	-7507
▁relate	-7508
▁awaited	-7509
▁battles	-7510
▁godlike	-7511
▁hunting	-7512
▁improve	-7513
▁masters	-7514
▁poverty	-7515
▁favorite	-7516
▁gardener	-7517
▁increase	-7518
▁intently	-7519
▁sounding	-7520
▁answering	-7521
▁anxiously	-7522
▁assurance	-7523
▁applicable	-7524
▁comprehend	-7525
▁simplicity	-7526
▁travelling	-7527
▁uneasiness	-7528
ID	-7529
ré	-7530
nes	-7531
pul	-7532
xic	-7533
▁15	-7534
▁50	-7535
HICH	-7536
cont	-7537
mith	-7538
oard	-7539
rant	-7540
▁dru	-7541
▁fow	-7542
actor	-7543
ánski	-7544
▁Moby	-7545
▁Poor	-7546
▁dine	-7547
▁joke	-7548
▁lane	-7549
▁meal	-7550
▁mile	-7551
▁olig	-7552
▁Bened	-7553
▁Swift	-7554
▁acted	-7555
▁altar	-7556
▁grows	-7557
▁legal	-7558
▁ninet	-7559
▁ruins	-7560
▁scorn	-7561
▁spies	-7562
▁swarm	-7563
▁Morris	-7564
▁adored	-7565
▁autumn	-7566
▁borrow	-7567
▁catast	-7568
▁resour	-7569
▁candles	-7570
▁contrib	-7571
▁declare	-7572
▁deliver	-7573
▁draught	-7574
▁inquiry	-7575
▁message	-7576
▁partner	-7577
▁privile	-7578
▁pulling	-7579
▁smaller	-7580
▁studied	-7581
▁superst	-7582
▁conquest	-7583
▁contract	-7584
▁interval	-7585
▁irresist	-7586
▁oligarch	-7587
▁properly	-7588
▁transfer	-7589
▁youthful	-7590
▁interview	-7591
▁invitation	-7592
▁examination	-7593
2)	-7594
Ar	-7595
CEN	-7596
ork	-7597
two	-7598
upt	-7599
anim	-7600
lets	-7601
olet	-7602
▁Hsi	-7603
▁cig	-7604
▁dar	-7605
▁yon	-7606
igsen	-7607
urely	-7608
▁Hipp	-7609
▁bind	-7610
▁dang	-7611
▁flut	-7612
▁mode	-7613
▁owed	-7614
▁peep	-7615
▁rasc	-7616
▁sobs	-7617
▁surv	-7618
inking	-7619
▁Mamma	-7620
▁appar	-7621
▁beach	-7622
▁crept	-7623
▁envel	-7624
▁guilt	-7625
▁hears	-7626
▁scale	-7627
▁scept	-7628
▁seats	-7629
▁Indian	-7630
▁cavern	-7631
▁decide	-7632
▁facing	-7633
▁female	-7634
▁guards	-7635
▁ladder	-7636
▁perpet	-7637
▁accused	-7638
▁benevol	-7639
▁discern	-7640
▁disease	-7641
▁emperor	-7642
▁leaders	-7643
▁respond	-7644
▁scrutin	-7645
▁disagree	-7646
▁exchange	-7647
▁sergeant	-7648
▁carpenter	-7649
▁equipment	-7650
▁repeating	-7651
▁authorities	-7652
▁affectionate	-7653
ITH	-7654
pel	-7655
?...	-7656
maid	-7657
udge	-7658
▁Dol	-7659
▁XVI	-7660
▁eag	-7661
▁lur	-7662
▁nob	-7663
▁rav	-7664
▁hath	-7665
▁heir	-7666
▁lust	-7667
▁pine	-7668
▁scru	-7669
▁slip	-7670
▁spin	-7671
icious	-7672
▁Enter	-7673
▁abyss	-7674
▁array	-7675
▁banks	-7676
▁cards	-7677
▁eloqu	-7678
▁hated	-7679
▁hotel	-7680
▁thief	-7681
Perhaps	-7682
ilities	-7683
▁assert	-7684
▁eighty	-7685
▁motive	-7686
▁stolen	-7687
▁valley	-7688
▁confirm	-7689
▁redoubt	-7690
▁venture	-7691
▁Austrian	-7692
▁assembly	-7693
▁bleeding	-7694
▁graceful	-7695
▁investig	-7696
▁noticing	-7697
▁youngest	-7698
▁Bennigsen	-7699
▁Speránski	-7700
▁behaviour	-7701
▁catastrop	-7702
▁extremity	-7703
▁innocence	-7704
▁supposing	-7705
▁apartments	-7706
▁calculated	-7707
▁generations	-7708
▁neighborhood	-7709
ada	-7710
igi	-7711
ilí	-7712
lix	-7713
▁20	-7714
▁30	-7715
▁EX	-7716
▁LA	-7717
Pooh	-7718
amin	-7719
boat	-7720
shin	-7721
▁Ass	-7722
▁Haw	-7723
▁XIV	-7724
▁nod	-7725
▁unw	-7726
ensed	-7727
lance	-7728
loire	-7729
unken	-7730
▁Boss	-7731
▁beds	-7732
▁bone	-7733
Really	-7734
necess	-7735
otions	-7736
▁Athen	-7737
▁exhib	-7738
▁goods	-7739
▁impet	-7740
▁manly	-7741
▁older	-7742
▁snuff	-7743
chamber	-7744
istered	-7745
▁beasts	-7746
▁chains	-7747
▁market	-7748
▁pillow	-7749
▁summit	-7750
▁tossed	-7751
▁victor	-7752
▁Whether	-7753
▁admired	-7754
▁impulse	-7755
▁marvell	-7756
▁vaguely	-7757
▁Magloire	-7758
▁creating	-7759
▁expenses	-7760
▁manifest	-7761
▁offended	-7762
▁patience	-7763
▁peaceful	-7764
▁community	-7765
▁confident	-7766
▁confirmed	-7767
▁reasoning	-7768
▁reception	-7769
▁religious	-7770
▁suspended	-7771
▁swallowed	-7772
▁Wellington	-7773
▁breathless	-7774
▁distinction	-7775
2,	-7776
ok	-7777
▁z	-7778
Cap	-7779
pus	-7780
áev	-7781
stri	-7782
time	-7783
umps	-7784
▁Ade	-7785
▁Dav	-7786
▁Ily	-7787
▁tig	-7788
alect	-7789
cribe	-7790
ucing	-7791
▁Duke	-7792
▁Give	-7793
▁Levi	-7794
▁bulw	-7795
▁enqu	-7796
▁lawy	-7797
▁rude	-7798
▁surm	-7799
asions	-7800
idents	-7801
▁decor	-7802
▁eleph	-7803
▁frank	-7804
▁tones	-7805
▁walks	-7806
certain	-7807
▁Pallas	-7808
▁beggar	-7809
▁closer	-7810
▁punish	-7811
▁renown	-7812
▁repuls	-7813
▁towers	-7814
aneously	-7815
inations	-7816
▁endless	-7817
▁granted	-7818
▁labours	-7819
▁springs	-7820
▁warning	-7821
▁portrait	-7822
▁screamed	-7823
▁Grantaire	-7824
▁Therefore	-7825
▁accompany	-7826
▁conducted	-7827
▁determine	-7828
▁happening	-7829
▁retreated	-7830
▁suspected	-7831
▁unnatural	-7832
▁harpooneer	-7833
▁probability	-7834
▁contemplation	-7835
eg	-7836
REE	-7837
lls	-7838
mas	-7839
six	-7840
uts	-7841
vre	-7842
▁AS	-7843
ouch	-7844
ánov	-7845
▁Tow	-7846
▁XII	-7847
▁ain	-7848
▁axe	-7849
▁stu	-7850
Uncle	-7851
occup	-7852
▁Book	-7853
▁Hell	-7854
▁Juno	-7855
▁deaf	-7856
▁lawn	-7857
▁mask	-7858
▁stag	-7859
return	-7860
▁Death	-7861
▁cemet	-7862
▁lodge	-7863
▁trade	-7864
▁Bildad	-7865
▁doubts	-7866
▁fitted	-7867
▁planks	-7868
▁scenes	-7869
▁skelet	-7870
▁drunken	-7871
▁elapsed	-7872
▁glances	-7873
▁glasses	-7874
▁grating	-7875
▁pistols	-7876
▁sailing	-7877
▁seizing	-7878
▁thanked	-7879
▁bitterly	-7880
▁memories	-7881
▁mischief	-7882
▁pleasing	-7883
▁available	-7884
▁centuries	-7885
▁defective	-7886
▁exchanged	-7887
▁narrative	-7888
▁obtaining	-7889
▁physician	-7890
▁paragraphs	-7891
▁proceeding	-7892
▁yourselves	-7893
IC	-7894
”;	-7895
asy	-7896
aus	-7897
rue	-7898
hind	-7899
meil	-7900
past	-7901
phew	-7902
usal	-7903
▁Nes	-7904
▁Roo	-7905
▁Tre	-7906
▁fie	-7907
antus	-7908
ordan	-7909
▁WITH	-7910
▁foam	-7911
▁tiny	-7912
▁Adeim	-7913
▁Guard	-7914
▁Hills	-7915
▁daily	-7916
▁dwarf	-7917
▁indef	-7918
▁pitch	-7919
▁pluck	-7920
▁tread	-7921
fermeil	-7922
▁Corsic	-7923
▁Indeed	-7924
▁Nether	-7925
▁elbows	-7926
▁mental	-7927
▁missed	-7928
▁nephew	-7929
▁roused	-7930
▁sunset	-7931
▁swords	-7932
▁capture	-7933
▁chapter	-7934
▁classes	-7935
▁enchant	-7936
▁encoura	-7937
▁flaming	-7938
▁helpless	-7939
▁hurrying	-7940
▁piercing	-7941
▁stopping	-7942
▁swimming	-7943
▁countries	-7944
▁observing	-7945
▁Adeimantus	-7946
▁downstairs	-7947
▁tranquillity	-7948
fo	-7949
uil	-7950
gain	-7951
keys	-7952
oups	-7953
pite	-7954
resa	-7955
árov	-7956
▁182	-7957
▁Arm	-7958
▁Kur	-7959
▁lip	-7960
nders	-7961
▁THIS	-7962
▁gulf	-7963
asting	-7964
liness	-7965
minded	-7966
▁Simon	-7967
▁Under	-7968
▁Venus	-7969
▁abode	-7970
▁accur	-7971
▁brisk	-7972
▁gleam	-7973
▁keeps	-7974
▁sends	-7975
▁tales	-7976
▁Jordan	-7977
▁Prussi	-7978
▁boldly	-7979
▁defeat	-7980
▁income	-7981
▁instit	-7982
▁jailer	-7983
▁lesson	-7984
▁murmur	-7985
▁offers	-7986
▁profit	-7987
▁riches	-7988
▁subtle	-7989
▁vulgar	-7990
▁washed	-7991
ferences	-7992
▁Bossuet	-7993
▁Hawkins	-7994
▁balloon	-7995
▁charged	-7996
▁complic	-7997
▁conveni	-7998
▁discipl	-7999
▁examine	-8000
▁injured	-8001
▁propose	-8002
▁ringing	-8003
▁slender	-8004
▁temples	-8005
▁conceive	-8006
▁contents	-8007
▁counsels	-8008
▁domestic	-8009
▁payments	-8010
▁reminded	-8011
▁treacher	-8012
▁belonging	-8013
▁certainty	-8014
▁incapable	-8015
▁reference	-8016
▁statement	-8017
▁characters	-8018
▁Montfermeil	-8019
▁Netherfield	-8020
▁incessantly	-8021
▁necessarily	-8022
▁difficulties	-8023
3)	-8024
OLI	-8025
bin	-8026
lys	-8027
oir	-8028
ril	-8029
ryph	-8030
▁BEN	-8031
▁Bog	-8032
▁ach	-8033
▁bee	-8034
▁hom	-8035
ipped	-8036
tends	-8037
▁asks	-8038
▁hint	-8039
▁jaws	-8040
▁lake	-8041
▁meas	-8042
▁pool	-8043
Madame	-8044
itious	-8045
▁Other	-8046
▁Peleg	-8047
▁WHICH	-8048
▁belly	-8049
▁brows	-8050
▁decre	-8051
▁fount	-8052
▁goose	-8053
▁heels	-8054
▁infam	-8055
▁lucky	-8056
▁roads	-8057
▁screw	-8058
▁upset	-8059
ossible	-8060
▁Juliet	-8061
▁issued	-8062
▁joyous	-8063
▁landed	-8064
▁mouths	-8065
▁overth	-8066
▁velvet	-8067
▁answers	-8068
▁closing	-8069
▁enjoyed	-8070
▁gravely	-8071
necessary	-8072
▁arriving	-8073
▁awakened	-8074
▁combined	-8075
▁commence	-8076
▁cylinder	-8077
▁dwelling	-8078
▁foremost	-8079
▁hundreds	-8080
▁passages	-8081
▁relieved	-8082
▁sciences	-8083
▁ascertain	-8084
▁democracy	-8085
▁favourite	-8086
▁obedience	-8087
▁practical	-8088
▁unwilling	-8089
▁advantages	-8090
▁marvellous	-8091
▁politeness	-8092
▁constitution	-8093
▁unexpectedly	-8094
Aye	-8095
MIT	-8096
_.”	-8097
aft	-8098
oes	-8099
umm	-8100
ées	-8101
▁16	-8102
bury	-8103
eyed	-8104
reen	-8105
▁Cha	-8106
▁Has	-8107
▁Med	-8108
▁Mel	-8109
▁Wol	-8110
▁jun	-8111
▁pig	-8112
faced	-8113
ierce	-8114
ifies	-8115
▁Four	-8116
▁Holy	-8117
▁Past	-8118
▁XIII	-8119
▁isol	-8120
▁nigh	-8121
▁rein	-8122
ailing	-8123
oubted	-8124
porary	-8125
spring	-8126
vítski	-8127
▁Kitty	-8128
▁Lucas	-8129
▁dense	-8130
▁dilig	-8131
▁funny	-8132
▁locks	-8133
▁paint	-8134
▁rival	-8135
▁slope	-8136
▁Empire	-8137
▁ascend	-8138
▁butter	-8139
▁denied	-8140
▁impert	-8141
▁mutual	-8142
▁prejud	-8143
▁region	-8144
▁rubles	-8145
▁spears	-8146
▁tragic	-8147
▁adopted	-8148
▁chanced	-8149
▁circles	-8150
▁connect	-8151
▁darling	-8152
▁dialect	-8153
▁intoxic	-8154
▁invalid	-8155
▁landing	-8156
▁methods	-8157
▁secrets	-8158
▁selfish	-8159
▁torture	-8160
▁tremend	-8161
▁attained	-8162
▁betrayed	-8163
▁feverish	-8164
▁frowning	-8165
▁interrog	-8166
▁perished	-8167
▁reserved	-8168
▁services	-8169
▁startled	-8170
▁uttering	-8171
▁valuable	-8172
▁complying	-8173
▁attributed	-8174
▁arrangements	-8175
▁communication	-8176
got	-8177
ols	-8178
▁Bo	-8179
Give	-8180
agon	-8181
emon	-8182
nant	-8183
▁Nay	-8184
▁Pip	-8185
▁atm	-8186
▁bon	-8187
▁pup	-8188
aging	-8189
glass	-8190
icism	-8191
urred	-8192
▁Bene	-8193
▁bars	-8194
▁foul	-8195
▁imit	-8196
▁male	-8197
▁woes	-8198
▁Henry	-8199
▁chape	-8200
▁deriv	-8201
▁exter	-8202
▁holds	-8203
▁moder	-8204
▁skull	-8205
natured	-8206
ression	-8207
▁Signor	-8208
▁aboard	-8209
▁appeal	-8210
▁dismay	-8211
▁heroic	-8212
▁ponder	-8213
▁shakes	-8214
▁Eumaeus	-8215
▁aroused	-8216
▁consist	-8217
▁dungeon	-8218
▁enlight	-8219
▁exposed	-8220
▁grieved	-8221
▁harbour	-8222
▁peoples	-8223
▁princes	-8224
▁remorse	-8225
▁sadness	-8226
▁whereon	-8227
▁frequent	-8228
▁majestic	-8229
▁mathemat	-8230
▁propriet	-8231
▁purchase	-8232
▁solemnly	-8233
▁whalemen	-8234
▁withdrew	-8235
▁Nesvítski	-8236
▁delivered	-8237
▁senseless	-8238
▁contradict	-8239
▁limitation	-8240
▁strengthen	-8241
▁threatening	-8242
▁characteristic	-8243
Dr	-8244
su	-8245
va	-8246
ár	-8247
zel	-8248
▁_“	-8249
camp	-8250
gypt	-8251
illa	-8252
ulet	-8253
▁Cla	-8254
▁cub	-8255
▁dus	-8256
▁hoo	-8257
▁oak	-8258
▁rud	-8259
ardly	-8260
ience	-8261
urned	-8262
ushes	-8263
▁Pole	-8264
▁Tsar	-8265
▁crou	-8266
▁liqu	-8267
▁push	-8268
▁stif	-8269
▁user	-8270
arters	-8271
▁Lives	-8272
▁admin	-8273
▁arrow	-8274
▁diary	-8275
▁exped	-8276
▁grain	-8277
▁smart	-8278
▁swung	-8279
▁waved	-8280
henomen	-8281
▁Should	-8282
▁artist	-8283
▁cheese	-8284
▁gallop	-8285
▁geomet	-8286
▁laying	-8287
▁leaped	-8288
▁maiden	-8289
▁mantle	-8290
▁scheme	-8291
▁simult	-8292
▁traged	-8293
▁warmth	-8294
▁Tydides	-8295
▁columns	-8296
▁counted	-8297
▁depends	-8298
▁effects	-8299
▁energet	-8300
▁exagger	-8301
▁expense	-8302
▁forming	-8303
▁happily	-8304
▁placing	-8305
▁sixteen	-8306
▁skilful	-8307
▁upwards	-8308
▁cemetery	-8309
▁critical	-8310
▁emotions	-8311
▁imperial	-8312
▁punished	-8313
▁surround	-8314
▁wondrous	-8315
▁Leviathan	-8316
▁appearing	-8317
▁earnestly	-8318
▁treasures	-8319
▁tremendous	-8320
▁exclamation	-8321
▁unnecessary	-8322
▁acknowledged	-8323
▁consequently	-8324
▁perspiration	-8325
May	-8326
OUR	-8327
ano	-8328
cif	-8329
lor	-8330
▁12	-8331
arth	-8332
olic	-8333
sole	-8334
————	-8335
▁200	-8336
▁Bas	-8337
▁ath	-8338
▁aye	-8339
▁cul	-8340
▁sex	-8341
arian	-8342
dated	-8343
force	-8344
might	-8345
shine	-8346
trees	-8347
▁Bilí	-8348
▁Last	-8349
▁Véra	-8350
▁bisc	-8351
▁bowl	-8352
▁dict	-8353
▁leis	-8354
▁neat	-8355
▁plot	-8356
▁rele	-8357
▁slew	-8358
formed	-8359
▁demon	-8360
▁desol	-8361
▁hosts	-8362
▁plant	-8363
▁Behind	-8364
▁atmosp	-8365
▁cattle	-8366
▁insurg	-8367
▁remote	-8368
▁saving	-8369
▁watery	-8370
▁Beneath	-8371
▁Between	-8372
▁Bilíbin	-8373
▁altered	-8374
▁clasped	-8375
▁climbed	-8376
▁concept	-8377
▁fathers	-8378
▁opposed	-8379
▁partial	-8380
▁hospital	-8381
▁huntsman	-8382
▁interpre	-8383
▁mourning	-8384
▁phenomen	-8385
▁apprehens	-8386
▁betrothed	-8387
▁gathering	-8388
▁royalties	-8389
▁supported	-8390
▁treatment	-8391
▁derivative	-8392
▁protection	-8393
▁insurrection	-8394
▁respectfully	-8395
▁neighbourhood	-8396
!)	-8397
);	-8398
Or	-8399
ba	-8400
ART	-8401
dam	-8402
iot	-8403
top	-8404
▁Lo	-8405
▁Mc	-8406
Phar	-8407
asty	-8408
neas	-8409
rini	-8410
rise	-8411
▁Bus	-8412
▁Its	-8413
▁Mil	-8414
▁flu	-8415
▁gos	-8416
▁rig	-8417
▁tip	-8418
Count	-8419
aeans	-8420
ieves	-8421
sters	-8422
▁Life	-8423
▁Supp	-8424
▁Turn	-8425
▁adjo	-8426
▁bees	-8427
▁boot	-8428
▁bund	-8429
▁clut	-8430
▁idle	-8431
▁rows	-8432
▁yawn	-8433
rewell	-8434
stones	-8435
terest	-8436
▁crush	-8437
▁etern	-8438
▁exert	-8439
▁haunt	-8440
▁livid	-8441
▁mould	-8442
▁oppon	-8443
▁prost	-8444
▁reins	-8445
▁shine	-8446
▁surre	-8447
▁sympt	-8448
Pharaon	-8449
ouncing	-8450
▁amidst	-8451
▁coffee	-8452
▁entity	-8453
▁exempt	-8454
▁helmet	-8455
▁insign	-8456
▁jewell	-8457
▁rarely	-8458
▁shores	-8459
▁vanity	-8460
quarters	-8461
▁avoided	-8462
▁deceive	-8463
▁develop	-8464
▁prosper	-8465
▁realize	-8466
▁rightly	-8467
▁sharply	-8468
▁staying	-8469
▁weapons	-8470
▁conveyed	-8471
▁farewell	-8472
▁Presently	-8473
▁persuaded	-8474
▁spectacle	-8475
▁foundation	-8476
▁intentions	-8477
▁perfection	-8478
▁threatened	-8479
▁Monseigneur	-8480
6,	-8481
Le	-8482
ST	-8483
.1.	-8484
.3,	-8485
.3.	-8486
ACH	-8487
ipe	-8488
iti	-8489
kóv	-8490
▁14	-8491
▁Id	-8492
▁Ku	-8493
AMAG	-8494
OLIO	-8495
acon	-8496
umpt	-8497
▁Acc	-8498
▁FRI	-8499
▁Squ	-8500
▁pub	-8501
▁rhy	-8502
ILITY	-8503
MITED	-8504
Which	-8505
ainte	-8506
ialog	-8507
oming	-8508
▁Upon	-8509
▁gild	-8510
▁pink	-8511
▁prim	-8512
▁sage	-8513
ducing	-8514
▁Chang	-8515
▁DAMAG	-8516
▁Luigi	-8517
▁Phaea	-8518
▁banqu	-8519
▁eagle	-8520
▁fence	-8521
▁pilot	-8522
▁stamm	-8523
▁swine	-8524
▁trunk	-8525
▁uncon	-8526
▁chapel	-8527
▁deemed	-8528
▁donate	-8529
▁exquis	-8530
▁lonely	-8531
▁review	-8532
▁rights	-8533
▁saddle	-8534
▁sprung	-8535
▁verses	-8536
▁LIMITED	-8537
▁appreci	-8538
▁artific	-8539
▁benefit	-8540
▁footman	-8541
▁pushing	-8542
▁reduced	-8543
▁thicket	-8544
▁timidly	-8545
▁torrent	-8546
▁vehicle	-8547
mpossible	-8548
▁Achaeans	-8549
▁Pastrini	-8550
▁contains	-8551
▁indirect	-8552
▁sunshine	-8553
▁Something	-8554
▁occasions	-8555
▁redistrib	-8556
▁venerable	-8557
▁bewildered	-8558
▁compliment	-8559
▁successful	-8560
▁consolation	-8561
▁expectation	-8562
▁replacement	-8563
▁disagreeable	-8564
Ant	-8565
IVE	-8566
UTI	-8567
alv	-8568
boy	-8569
▁2.	-8570
▁az	-8571
IGHT	-8572
THER	-8573
hire	-8574
onor	-8575
▁Out	-8576
▁Say	-8577
▁awe	-8578
▁egg	-8579
alles	-8580
icted	-8581
ulcan	-8582
▁Comp	-8583
▁bulk	-8584
▁dies	-8585
▁tops	-8586
▁upro	-8587
ocious	-8588
teenth	-8589
▁Petit	-8590
▁await	-8591
▁bayon	-8592
▁burnt	-8593
▁drift	-8594
▁milit	-8595
▁salon	-8596
▁silly	-8597
▁towns	-8598
▁bowing	-8599
▁bushes	-8600
▁copied	-8601
▁corpor	-8602
▁images	-8603
▁intend	-8604
▁recent	-8605
▁reluct	-8606
▁scarce	-8607
▁submit	-8608
▁waving	-8609
oubtedly	-8610
▁deserve	-8611
▁elegant	-8612
▁gallant	-8613
▁gallery	-8614
▁howling	-8615
▁slumber	-8616
▁terrors	-8617
▁tonight	-8618
▁Parisian	-8619
▁doubtful	-8620
▁eyebrows	-8621
▁rapidity	-8622
▁retained	-8623
▁wandered	-8624
▁Benedetto	-8625
▁battalion	-8626
▁dissatisf	-8627
▁introduce	-8628
▁travelled	-8629
▁precaution	-8630
▁retreating	-8631
▁suspicious	-8632
7,	-8633
UE	-8634
”,	-8635
did	-8636
omb	-8637
▁13	-8638
▁Gl	-8639
▁Ha	-8640
Only	-8641
inth	-8642
oles	-8643
▁Bru	-8644
▁dew	-8645
▁pir	-8646
Saint	-8647
Shall	-8648
VOLIO	-8649
astle	-8650
atáev	-8651
culty	-8652
ifted	-8653
pulch	-8654
▁Turk	-8655
▁ante	-8656
▁chat	-8657
▁goal	-8658
▁lads	-8659
▁tort	-8660
ctions	-8661
haired	-8662
▁chamb	-8663
▁folds	-8664
▁rises	-8665
▁unite	-8666
▁amazed	-8667
▁amused	-8668
▁groups	-8669
▁herald	-8670
▁jacket	-8671
▁occupy	-8672
▁dreamed	-8673
▁enthusi	-8674
▁faculty	-8675
▁orderly	-8676
▁sepulch	-8677
▁villain	-8678
▁winding	-8679
▁yielded	-8680
▁Alcinous	-8681
▁BENVOLIO	-8682
▁ambition	-8683
▁attempts	-8684
▁attorney	-8685
▁audience	-8686
▁dazzling	-8687
▁dragging	-8688
▁elephant	-8689
▁measures	-8690
▁murdered	-8691
▁supplied	-8692
▁arguments	-8693
▁exquisite	-8694
▁ferocious	-8695
▁offspring	-8696
▁respected	-8697
▁tormented	-8698
▁describing	-8699
▁generation	-8700
▁instrument	-8701
▁entertained	-8702
▁preparation	-8703
VEN	-8704
bow	-8705
ird	-8706
jac	-8707
lat	-8708
urb	-8709
▁Ac	-8710
▁Im	-8711
UTIO	-8712
bacc	-8713
lini	-8714
sect	-8715
▁NOT	-8716
▁hay	-8717
▁sne	-8718
actly	-8719
count	-8720
erald	-8721
erval	-8722
hered	-8723
white	-8724
▁Bald	-8725
▁Love	-8726
▁THAT	-8727
▁bust	-8728
▁debt	-8729
▁nest	-8730
▁outl	-8731
▁oxen	-8732
▁tele	-8733
▁azure	-8734
▁embro	-8735
▁inexp	-8736
▁magic	-8737
▁paced	-8738
▁panic	-8739
▁patri	-8740
▁score	-8741
▁shaft	-8742
▁shoot	-8743
▁theft	-8744
▁veget	-8745
inently	-8746
iveness	-8747
▁Edward	-8748
▁affirm	-8749
▁bullet	-8750
▁career	-8751
▁divide	-8752
▁judges	-8753
▁pallor	-8754
▁slaves	-8755
▁stated	-8756
▁subter	-8757
▁tavern	-8758
▁transf	-8759
▁viewed	-8760
umerable	-8761
▁Capulet	-8762
▁Kurágin	-8763
▁attacks	-8764
▁blushed	-8765
▁dispute	-8766
▁doctors	-8767
▁doorway	-8768
▁edition	-8769
▁extingu	-8770
▁passers	-8771
▁pretext	-8772
▁seeming	-8773
▁shortly	-8774
▁Faubourg	-8775
▁Karatáev	-8776
▁MERCUTIO	-8777
▁converse	-8778
▁fourteen	-8779
▁falsehood	-8780
▁quivering	-8781
▁commanders	-8782
▁discipline	-8783
▁occupation	-8784
▁opposition	-8785
▁surprising	-8786
▁whatsoever	-8787
’;	-8788
ata	-8789
nib	-8790
pen	-8791
rec	-8792
rus	-8793
▁ze	-8794
balt	-8795
bled	-8796
bons	-8797
cuse	-8798
kers	-8799
omte	-8800
pers	-8801
▁(2)	-8802
▁Lat	-8803
▁Str	-8804
▁XXI	-8805
▁tid	-8806
Every	-8807
istoc	-8808
urday	-8809
urrah	-8810
▁Arab	-8811
▁duel	-8812
▁file	-8813
gments	-8814
▁Egypt	-8815
▁Night	-8816
▁Think	-8817
▁analy	-8818
▁anter	-8819
▁blaze	-8820
▁evils	-8821
▁hovel	-8822
▁nails	-8823
▁newly	-8824
▁pages	-8825
▁scent	-8826
▁spoil	-8827
atively	-8828
▁Doctor	-8829
▁Teresa	-8830
▁Vulcan	-8831
▁Wicked	-8832
▁abomin	-8833
▁coldly	-8834
▁cultiv	-8835
▁cursed	-8836
▁inches	-8837
▁raging	-8838
▁seamen	-8839
▁sheets	-8840
▁transp	-8841
▁Aristot	-8842
▁dazzled	-8843
▁grounds	-8844
▁lifting	-8845
▁policem	-8846
▁reverse	-8847
▁whistle	-8848
▁accounts	-8849
▁backward	-8850
▁daybreak	-8851
▁descends	-8852
▁indicate	-8853
▁invented	-8854
▁referred	-8855
▁retorted	-8856
▁uncommon	-8857
▁conceived	-8858
▁searching	-8859
▁spiritual	-8860
▁wandering	-8861
▁benefactor	-8862
▁insignific	-8863
▁passionate	-8864
▁questioned	-8865
▁respectful	-8866
▁struggling	-8867
▁triumphant	-8868
▁application	-8869
▁catastrophe	-8870
▁innumerable	-8871
▁unconsciously	-8872
En	-8873
UC	-8874
aph	-8875
iac	-8876
▁Co	-8877
▁ma	-8878
Some	-8879
cier	-8880
fold	-8881
mast	-8882
orus	-8883
post	-8884
riel	-8885
▁Pel	-8886
▁Pyl	-8887
▁Ros	-8888
▁Tim	-8889
▁bea	-8890
▁coo	-8891
▁dug	-8892
▁enl	-8893
▁jet	-8894
▁lun	-8895
▁oft	-8896
▁tin	-8897
▁ult	-8898
olomy	-8899
▁Does	-8900
▁Five	-8901
▁Vien	-8902
▁beam	-8903
▁fath	-8904
▁fits	-8905
▁impl	-8906
atives	-8907
ements	-8908
ulties	-8909
velope	-8910
▁FRIAR	-8911
▁Green	-8912
▁darts	-8913
▁delir	-8914
▁dined	-8915
▁hedge	-8916
▁mates	-8917
▁moist	-8918
▁scrap	-8919
▁spell	-8920
▁stove	-8921
▁trump	-8922
▁vanqu	-8923
nothing	-8924
olomyès	-8925
oration	-8926
▁Turtle	-8927
▁Tybalt	-8928
▁acting	-8929
▁advers	-8930
▁divers	-8931
▁fulfil	-8932
▁hoping	-8933
▁stable	-8934
▁thrice	-8935
▁tobacc	-8936
▁unseen	-8937
▁Emerald	-8938
▁Olympus	-8939
▁amusing	-8940
▁augment	-8941
▁bullets	-8942
▁chances	-8943
▁flashed	-8944
▁largest	-8945
▁persist	-8946
▁puzzled	-8947
▁sternly	-8948
▁writers	-8949
▁American	-8950
▁assassin	-8951
▁bulwarks	-8952
▁desirous	-8953
▁groaning	-8954
▁paradise	-8955
▁preoccup	-8956
▁sentinel	-8957
▁suitable	-8958
▁Aristotle	-8959
▁objection	-8960
▁preferred	-8961
▁stationed	-8962
▁whiteness	-8963
▁adventures	-8964
▁atmosphere	-8965
▁impatience	-8966
▁maintained	-8967
▁perceiving	-8968
▁respecting	-8969
▁embarrassed	-8970
▁respectable	-8971
▁wretchedness	-8972
15	-8973
TY	-8974
’,	-8975
Car	-8976
ROM	-8977
car	-8978
ems	-8979
jon	-8980
▁Bu	-8981
▁Up	-8982
▁cu	-8983
anny	-8984
ouss	-8985
ping	-8986
▁LAW	-8987
▁Tem	-8988
▁loo	-8989
▁pad	-8990
!...”	-8991
armes	-8992
isive	-8993
izard	-8994
othes	-8995
uated	-8996
▁Cons	-8997
▁brut	-8998
▁clad	-8999
▁conj	-9000
▁fund	-9001
▁hadn	-9002
▁hing	-9003
▁jury	-9004
▁mute	-9005
▁nail	-9006
▁sack	-9007
antime	-9008
ryphon	-9009
▁backs	-9010
▁clung	-9011
▁costs	-9012
▁debts	-9013
▁gamin	-9014
▁goats	-9015
▁issue	-9016
▁petty	-9017
▁rolls	-9018
▁thigh	-9019
▁thumb	-9020
▁weigh	-9021
▁condes	-9022
▁groans	-9023
▁hasten	-9024
▁hearth	-9025
▁indisp	-9026
▁pounds	-9027
▁shower	-9028
▁theirs	-9029
▁trench	-9030
▁Livesey	-9031
▁carries	-9032
▁commiss	-9033
▁essence	-9034
▁furnish	-9035
▁handful	-9036
▁phantom	-9037
▁thieves	-9038
▁twisted	-9039
▁Saturday	-9040
▁educated	-9041
▁lowering	-9042
▁skeleton	-9043
▁wondered	-9044
▁wrinkled	-9045
▁customary	-9046
▁faculties	-9047
▁gymnastic	-9048
▁imitation	-9049
▁instances	-9050
▁neglected	-9051
▁philosoph	-9052
▁sparkling	-9053
▁forgetting	-9054
▁procession	-9055
▁resistance	-9056
▁grandmother	-9057
▁illustrious	-9058
▁acquaintances	-9059
▁establishment	-9060
.”—	-9061
OSE	-9062
bes	-9063
cap	-9064
noe	-9065
pef	-9066
xem	-9067
▁SA	-9068
▁Tw	-9069
▁eh	-9070
only	-9071
rawn	-9072
such	-9073
thus	-9074
▁Lou	-9075
▁dyn	-9076
▁fug	-9077
▁gas	-9078
abled	-9079
inged	-9080
spect	-9081
▁Cape	-9082
▁Lake	-9083
▁Mock	-9084
▁Tash	-9085
▁duck	-9086
▁gale	-9087
▁impe	-9088
▁matt	-9089
▁symb	-9090
castle	-9091
herent	-9092
▁Luxem	-9093
▁abund	-9094
▁exper	-9095
▁faire	-9096
▁holes	-9097
▁maxim	-9098
▁miser	-9099
▁novel	-9100
▁ornam	-9101
▁physi	-9102
▁poems	-9103
▁revel	-9104
▁roofs	-9105
▁thund	-9106
idently	-9107
▁angels	-9108
▁bathed	-9109
▁bounds	-9110
▁bucket	-9111
▁carpet	-9112
▁growth	-9113
▁immort	-9114
▁induce	-9115
▁indust	-9116
▁invari	-9117
▁meadow	-9118
▁oppose	-9119
▁plains	-9120
▁proofs	-9121
▁resent	-9122
▁serene	-9123
▁termed	-9124
▁Clerval	-9125
▁Spartan	-9126
▁endured	-9127
▁fearing	-9128
▁glowing	-9129
▁gravity	-9130
▁planted	-9131
▁praying	-9132
▁regards	-9133
▁satisfy	-9134
▁stirred	-9135
▁tobacco	-9136
▁joyfully	-9137
▁converted	-9138
▁enjoyment	-9139
▁personage	-9140
▁stammered	-9141
▁Luxembourg	-9142
▁penetrated	-9143
▁complicated	-9144
▁introduction	-9145
vo	-9146
gen	-9147
iem	-9148
isl	-9149
ser	-9150
▁Ga	-9151
dled	-9152
gram	-9153
riar	-9154
▁Jes	-9155
▁XXX	-9156
▁kne	-9157
▁shy	-9158
▁tub	-9159
allel	-9160
heads	-9161
lored	-9162
ppers	-9163
▁Germ	-9164
▁belt	-9165
▁cure	-9166
▁dame	-9167
▁ejac	-9168
▁fasc	-9169
▁fist	-9170
▁knot	-9171
▁sket	-9172
▁spar	-9173
▁subd	-9174
affold	-9175
alling	-9176
dering	-9177
vation	-9178
▁Murat	-9179
▁Nurse	-9180
▁Place	-9181
▁accus	-9182
▁colle	-9183
▁coron	-9184
▁groom	-9185
▁hasty	-9186
▁sable	-9187
▁skirt	-9188
▁songs	-9189
▁vexed	-9190
▁Busoni	-9191
▁Except	-9192
▁Ivánov	-9193
▁advise	-9194
▁arrows	-9195
▁awaken	-9196
▁compar	-9197
▁domain	-9198
▁flowed	-9199
▁ghosts	-9200
▁gloves	-9201
▁hammer	-9202
▁longed	-9203
▁multip	-9204
▁paraly	-9205
▁scound	-9206
▁stupef	-9207
▁volume	-9208
▁weaker	-9209
▁aristoc	-9210
▁dangers	-9211
▁discont	-9212
▁dislike	-9213
▁doubted	-9214
▁drowned	-9215
▁guarded	-9216
▁horrors	-9217
▁lessons	-9218
▁marched	-9219
▁mortals	-9220
▁prophet	-9221
▁thereby	-9222
▁victims	-9223
▁Everyone	-9224
▁Meantime	-9225
▁delicacy	-9226
▁garments	-9227
▁proposal	-9228
▁scaffold	-9229
▁sunlight	-9230
▁animation	-9231
▁attendant	-9232
▁encourage	-9233
▁readiness	-9234
▁regarding	-9235
▁spreading	-9236
▁expressing	-9237
▁lieutenant	-9238
▁sentiments	-9239
withstanding	-9240
▁impatiently	-9241
▁superiority	-9242
▁disappointment	-9243
Pr	-9244
PAN	-9245
fit	-9246
rol	-9247
▁3.	-9248
▁Ev	-9249
▁cy	-9250
Jean	-9251
apse	-9252
cien	-9253
gian	-9254
iday	-9255
open	-9256
oubt	-9257
▁Asi	-9258
▁Sec	-9259
▁Thé	-9260
▁Yan	-9261
▁lee	-9262
▁map	-9263
aning	-9264
innie	-9265
mates	-9266
three	-9267
▁Mery	-9268
▁None	-9269
▁Pray	-9270
▁cash	-9271
▁dece	-9272
▁ench	-9273
▁genu	-9274
▁hook	-9275
▁lieu	-9276
▁owns	-9277
▁tack	-9278
digger	-9279
rating	-9280
upiter	-9281
▁Maire	-9282
▁blade	-9283
▁chill	-9284
▁draws	-9285
▁fiend	-9286
▁ineff	-9287
▁louis	-9288
▁madam	-9289
▁range	-9290
▁union	-9291
▁Brujon	-9292
▁Church	-9293
▁Fierce	-9294
▁Thetis	-9295
▁Vienna	-9296
▁adding	-9297
▁coloss	-9298
▁nerves	-9299
▁provin	-9300
▁rubbed	-9301
▁sleepy	-9302
▁tasted	-9303
▁welcom	-9304
▁Charles	-9305
▁Meryton	-9306
▁bravest	-9307
▁nowhere	-9308
▁refusal	-9309
▁reigned	-9310
▁rewards	-9311
▁Although	-9312
▁catching	-9313
▁diamonds	-9314
▁dropping	-9315
▁replying	-9316
▁vicinity	-9317
▁Frenchmen	-9318
▁attempted	-9319
▁enveloped	-9320
▁interpret	-9321
▁resembles	-9322
▁swineherd	-9323
▁whistling	-9324
▁temperance	-9325
▁significant	-9326
▁dispositions	-9327
LI	-9328
kó	-9329
ád	-9330
ARK	-9331
eus	-9332
mir	-9333
nut	-9334
oom	-9335
bear	-9336
cles	-9337
ient	-9338
ieth	-9339
olio	-9340
uary	-9341
zard	-9342
▁Use	-9343
▁Vol	-9344
▁lid	-9345
▁ram	-9346
▁tut	-9347
▁voc	-9348
RENCE	-9349
These	-9350
cifix	-9351
woman	-9352
▁Vict	-9353
▁bagg	-9354
▁desk	-9355
▁econ	-9356
▁feed	-9357
▁gasp	-9358
▁hare	-9359
▁lung	-9360
velled	-9361
▁Dutch	-9362
▁Frank	-9363
▁bells	-9364
▁defin	-9365
▁dusty	-9366
▁entry	-9367
▁globe	-9368
▁irreg	-9369
▁moves	-9370
▁rhyth	-9371
▁sweat	-9372
▁tiger	-9373
▁token	-9374
▁Winnie	-9375
▁commer	-9376
▁hounds	-9377
▁legisl	-9378
▁morrow	-9379
▁precip	-9380
▁reveal	-9381
▁sphere	-9382
▁visits	-9383
▁baggage	-9384
▁blowing	-9385
▁flatter	-9386
▁floated	-9387
▁forests	-9388
▁frowned	-9389
▁healthy	-9390
▁pretend	-9391
▁serving	-9392
▁warlike	-9393
▁Bonapart	-9394
▁LAWRENCE	-9395
▁approved	-9396
▁consists	-9397
▁covering	-9398
▁cupboard	-9399
▁marching	-9400
▁prioress	-9401
▁released	-9402
▁respects	-9403
▁shrugged	-9404
▁shutters	-9405
▁smallest	-9406
▁steadily	-9407
▁universe	-9408
▁Baptistin	-9409
▁Tholomyès	-9410
▁assistant	-9411
▁believing	-9412
▁gendarmes	-9413
▁prevailed	-9414
▁stockings	-9415
▁tradition	-9416
▁uncomfort	-9417
▁witnesses	-9418
▁Phaeacians	-9419
▁expressive	-9420
▁inevitable	-9421
▁transferred	-9422
11	-9423
TE	-9424
axe	-9425
ero	-9426
haw	-9427
mor	-9428
whe	-9429
▁ti	-9430
Pray	-9431
alus	-9432
ante	-9433
bery	-9434
bors	-9435
clay	-9436
ilet	-9437
rown	-9438
ruck	-9439
tego	-9440
wart	-9441
▁Add	-9442
▁cli	-9443
▁fol	-9444
acing	-9445
athed	-9446
icpus	-9447
lemen	-9448
ratic	-9449
sibly	-9450
ursed	-9451
▁Aunt	-9452
▁Dron	-9453
▁Hold	-9454
▁agon	-9455
▁cuir	-9456
▁grin	-9457
▁mock	-9458
▁ratt	-9459
▁serp	-9460
▁void	-9461
▁wink	-9462
athieu	-9463
▁Catal	-9464
▁Could	-9465
▁Flint	-9466
▁abhor	-9467
▁appla	-9468
▁coinc	-9469
▁dares	-9470
▁likes	-9471
▁metap	-9472
▁sixth	-9473
▁slack	-9474
▁stake	-9475
▁verge	-9476
▁widow	-9477
▁wiped	-9478
atching	-9479
itively	-9480
▁Champs	-9481
▁Hatter	-9482
▁Pember	-9483
▁Philip	-9484
▁gladly	-9485
▁lawyer	-9486
▁livres	-9487
▁midday	-9488
▁nostri	-9489
▁repent	-9490
▁talent	-9491
▁vainly	-9492
▁Gryphon	-9493
▁Jupiter	-9494
▁bandits	-9495
▁cracked	-9496
▁inspire	-9497
▁marshal	-9498
▁prudent	-9499
▁renewed	-9500
▁seventh	-9501
▁solicit	-9502
▁stamped	-9503
▁thirsty	-9504
▁trained	-9505
▁Whatever	-9506
▁afforded	-9507
▁careless	-9508
▁drooping	-9509
▁envelope	-9510
▁grandeur	-9511
▁monument	-9512
▁preceded	-9513
▁pressure	-9514
▁relating	-9515
▁speedily	-9516
▁training	-9517
▁Pemberley	-9518
▁adjoining	-9519
▁extending	-9520
▁horseback	-9521
▁operation	-9522
▁possesses	-9523
▁purchased	-9524
▁regiments	-9525
▁responded	-9526
▁struggled	-9527
▁willingly	-9528
▁detachment	-9529
▁sensations	-9530
▁tumultuous	-9531
▁whispering	-9532
▁accordingly	-9533
▁extinguished	-9534
▁irresistible	-9535
gi	-9536
ARD	-9537
OND	-9538
bru	-9539
has	-9540
low	-9541
pri	-9542
rep	-9543
▁DI	-9544
▁Je	-9545
Wait	-9546
hile	-9547
wing	-9548
▁ecc	-9549
▁nap	-9550
▁rab	-9551
▁rug	-9552
icide	-9553
lying	-9554
ograp	-9555
▁Bill	-9556
▁bald	-9557
▁bids	-9558
▁buzz	-9559
▁fant	-9560
▁intr	-9561
▁leap	-9562
▁melt	-9563
▁puts	-9564
▁reco	-9565
▁sets	-9566
▁swam	-9567
▁vile	-9568
mighty	-9569
ridges	-9570
twenty	-9571
▁Horse	-9572
▁Smoll	-9573
▁Spain	-9574
▁Trans	-9575
▁adorn	-9576
▁fairy	-9577
▁inacc	-9578
▁incom	-9579
▁pious	-9580
▁rigid	-9581
▁simpl	-9582
▁stole	-9583
▁verse	-9584
▁Basque	-9585
▁errors	-9586
▁humili	-9587
▁infall	-9588
▁pacing	-9589
▁strife	-9590
▁uproar	-9591
▁warned	-9592
▁blazing	-9593
▁islands	-9594
▁lacking	-9595
▁mixture	-9596
▁studies	-9597
▁subsequ	-9598
▁weighed	-9599
▁whoever	-9600
▁Minister	-9601
▁Tashtego	-9602
▁abstract	-9603
▁allusion	-9604
▁appetite	-9605
▁calmness	-9606
▁ceremony	-9607
▁civility	-9608
▁disaster	-9609
▁dreaming	-9610
▁elevated	-9611
▁measured	-9612
▁polished	-9613
▁research	-9614
▁restrict	-9615
▁selected	-9616
▁terribly	-9617
▁vigorous	-9618
▁continual	-9619
▁divisions	-9620
▁forbidden	-9621
▁honorable	-9622
▁inhabited	-9623
▁irregular	-9624
▁pretended	-9625
▁recommend	-9626
▁sorrowful	-9627
▁carelessly	-9628
▁displeased	-9629
▁indicating	-9630
▁personally	-9631
▁Thénardiers	-9632
▁harpooneers	-9633
▁hospitality	-9634
▁embarrassment	-9635
▁simultaneously	-9636
ADY	-9637
IOL	-9638
Was	-9639
elf	-9640
ere	-9641
iel	-9642
loc	-9643
uer	-9644
▁IS	-9645
ders	-9646
gone	-9647
hess	-9648
opes	-9649
uity	-9650
▁Chi	-9651
▁IND	-9652
▁cud	-9653
▁doc	-9654
▁jer	-9655
▁les	-9656
▁lic	-9657
▁rou	-9658
▁vow	-9659
After	-9660
Would	-9661
inger	-9662
rates	-9663
▁Amph	-9664
▁Gold	-9665
▁Port	-9666
▁Toul	-9667
▁barb	-9668
▁goat	-9669
▁usur	-9670
estern	-9671
iation	-9672
lysées	-9673
éevich	-9674
▁April	-9675
▁House	-9676
▁Laert	-9677
▁exile	-9678
▁knoll	-9679
▁punct	-9680
▁tenth	-9681
legraph	-9682
▁center	-9683
▁create	-9684
▁faster	-9685
▁hunted	-9686
▁judged	-9687
▁knight	-9688
▁louder	-9689
▁overfl	-9690
▁patter	-9691
▁prohib	-9692
▁quiver	-9693
▁ribbon	-9694
▁roared	-9695
▁snatch	-9696
▁statue	-9697
▁stores	-9698
▁Justine	-9699
▁approve	-9700
▁balance	-9701
▁condemn	-9702
▁cuirass	-9703
▁descent	-9704
▁ecstasy	-9705
▁fancies	-9706
▁motives	-9707
▁remembr	-9708
▁shields	-9709
▁spectre	-9710
▁washing	-9711
▁Highness	-9712
▁anteroom	-9713
▁articles	-9714
▁blessing	-9715
▁bursting	-9716
▁childish	-9717
▁curtains	-9718
▁security	-9719
▁stirring	-9720
▁vehicles	-9721
▁wrinkles	-9722
▁clearness	-9723
▁discussed	-9724
▁enchanted	-9725
▁hereafter	-9726
▁intending	-9727
▁provision	-9728
▁apparition	-9729
▁battalions	-9730
▁insurgents	-9731
▁objections	-9732
▁resembling	-9733
▁neighboring	-9734
▁resemblance	-9735
▁communicated	-9736
Ne	-9737
Po	-9738
gon	-9739
had	-9740
met	-9741
mid	-9742
▁Af	-9743
▁Ma	-9744
▁ah	-9745
IOLA	-9746
▁501	-9747
▁Leg	-9748
▁Rem	-9749
▁Sav	-9750
▁exh	-9751
achel	-9752
ansas	-9753
armed	-9754
bably	-9755
erved	-9756
ilion	-9757
itect	-9758
rical	-9759
rière	-9760
utter	-9761
venue	-9762
▁Pass	-9763
▁Serv	-9764
▁Whit	-9765
▁bolt	-9766
▁borz	-9767
▁claw	-9768
▁hail	-9769
▁mans	-9770
▁nuns	-9771
▁prel	-9772
▁raft	-9773
▁ramp	-9774
▁sore	-9775
▁suck	-9776
bruary	-9777
uesday	-9778
urable	-9779
uteous	-9780
▁brush	-9781
▁discl	-9782
▁gover	-9783
▁gross	-9784
▁liken	-9785
▁metal	-9786
▁print	-9787
▁rings	-9788
▁unequ	-9789
PANIOLA	-9790
renched	-9791
▁Lucien	-9792
▁Peleus	-9793
▁Woking	-9794
▁Yanina	-9795
▁bandit	-9796
▁brandy	-9797
▁cudgel	-9798
▁drawer	-9799
▁enters	-9800
▁esteem	-9801
▁expend	-9802
▁guided	-9803
▁hearty	-9804
▁hinges	-9805
▁indist	-9806
▁learnt	-9807
▁needle	-9808
▁perman	-9809
▁revolt	-9810
▁rivers	-9811
▁robbed	-9812
▁temple	-9813
oussaint	-9814
▁Barclay	-9815
▁dresses	-9816
▁frantic	-9817
▁imposed	-9818
▁oppress	-9819
▁secured	-9820
▁sharing	-9821
▁survive	-9822
▁theatre	-9823
▁alarming	-9824
▁capacity	-9825
▁effected	-9826
▁frontier	-9827
▁nostrils	-9828
▁proceeds	-9829
▁rattling	-9830
▁searched	-9831
▁softened	-9832
▁unworthy	-9833
▁villages	-9834
▁viscount	-9835
▁attentive	-9836
▁complaint	-9837
▁penetrate	-9838
▁residence	-9839
▁whirlwind	-9840
▁witnessed	-9841
▁HISPANIOLA	-9842
▁confession	-9843
▁discharged	-9844
▁prodigious	-9845
▁references	-9846
▁constructed	-9847
▁mechanically	-9848
.7	-9849
Tu	-9850
ya	-9851
end	-9852
lax	-9853
lov	-9854
▁Hy	-9855
▁Pi	-9856
True	-9857
apes	-9858
cend	-9859
lass	-9860
sell	-9861
shka	-9862
skin	-9863
▁202	-9864
▁Cal	-9865
▁Fin	-9866
▁Ori	-9867
▁Rom	-9868
▁viv	-9869
adays	-9870
anter	-9871
conte	-9872
dling	-9873
olyte	-9874
plete	-9875
these	-9876
▁Plum	-9877
▁acts	-9878
▁bite	-9879
▁bron	-9880
▁bury	-9881
▁canv	-9882
▁desc	-9883
▁keel	-9884
▁limb	-9885
▁mane	-9886
▁orph	-9887
▁seal	-9888
aneous	-9889
encies	-9890
retion	-9891
uteuil	-9892
▁Pylos	-9893
▁alley	-9894
▁brist	-9895
▁chall	-9896
▁dimly	-9897
▁irony	-9898
▁plump	-9899
viously	-9900
▁Kansas	-9901
▁Merion	-9902
▁ambush	-9903
▁bishop	-9904
▁crowns	-9905
▁discon	-9906
▁escort	-9907
▁expand	-9908
▁impass	-9909
▁intrig	-9910
▁lesser	-9911
▁	-9912
e	-9913
t	-9914
a	-9915
o	-9916
n	-9917
h	-9918
i	-9919
s	-9920
r	-9921
d	-9922
l	-9923
u	-9924
m	-9925
c	-9926
w	-9927
f	-9928
g	-9929
,	-9930
y	-9931
p	-9932
b	-9933
.	-9934
v	-9935
k	-9936
I	-9937
T	-9938
“	-9939
”	-9940
A	-9941
’	-9942
;	-9943
H	-9944
M	-9945
-	-9946
S	-9947
x	-9948
P	-9949
W	-9950
?	-9951
C	-9952
B	-9953
E	-9954
!	-9955
j	-9956
N	-9957
O	-9958
q	-9959
R	-9960
—	-9961
D	-9962
G	-9963
F	-9964
L	-9965
:	-9966
z	-9967
Y	-9968
_	-9969
V	-9970
J	-9971
‘	-9972
1	-9973
U	-9974
é	-9975
"	-9976
0	-9977
á	-9978
(	-9979
)	-9980
K	-9981
ó	-9982
2	-9983
[	-9984
]	-9985
í	-9986
3	-9987
8	-9988
X	-9989
è	-9990
5	-9991
*	-9992
4	-9993
6	-9994
7	-9995
